{"layers":[{"out_depth":20,"out_sx":1,"out_sy":1,"layer_type":"input"},{"out_depth":60,"out_sx":1,"out_sy":1,"layer_type":"fc","num_inputs":20,"l1_decay_mul":0,"l2_decay_mul":1,"filters":[{"sx":1,"sy":1,"depth":20,"w":{"0":-0.5183175034457844,"1":-0.20150383316494505,"2":0.23407586779191597,"3":0.08299893529773832,"4":-0.2799622265973623,"5":-0.19272468006389856,"6":-0.701323411063907,"7":-0.10144764137573412,"8":0.2855158494015381,"9":0.08822058219889502,"10":-0.22450850284968682,"11":-0.21567810043220736,"12":-0.3707217605082125,"13":-0.29246652368209214,"14":0.15981903768907257,"15":-0.19561830544841255,"16":-0.17965656199304647,"17":0.5071381391358802,"18":0.17354815129734832,"19":-0.005337937871762047}},{"sx":1,"sy":1,"depth":20,"w":{"0":0.027241631293258396,"1":-0.03345835753905257,"2":0.0046598844680078,"3":-0.0413851879676181,"4":0.03350965880109621,"5":0.011926601976181513,"6":-0.023673947988990175,"7":-0.007941375452986737,"8":-0.018300827456825375,"9":-0.051183032647162195,"10":-0.014340289065372368,"11":-0.023829713373869518,"12":-0.017344052348976777,"13":0.005239008789309665,"14":0.00956420896723515,"15":0.01670852003706015,"16":-0.0041589795723030185,"17":0.02632393243142493,"18":0.01573841054403507,"19":0.07419909545280463}},{"sx":1,"sy":1,"depth":20,"w":{"0":-0.21455114866251673,"1":0.027225994892477862,"2":0.009947034332848662,"3":-0.35534397013519814,"4":-0.3062846240260292,"5":0.102082695651852,"6":-0.3194505910354387,"7":0.23199591483145696,"8":0.055896378027543527,"9":-0.3503936076017341,"10":-0.3197196414082463,"11":0.10125513714449116,"12":-0.12605266599530424,"13":0.4303534257068159,"14":-0.12748798777559703,"15":-0.22830000782779988,"16":-0.16773751534300899,"17":0.32290865844768524,"18":-0.14086338550781305,"19":-0.07435279975752324}},{"sx":1,"sy":1,"depth":20,"w":{"0":-0.027012782568720493,"1":-0.0627757692584296,"2":-0.4200685428290061,"3":0.24158539847909957,"4":0.09063258992322878,"5":-0.13424549194568067,"6":0.07589954272525809,"7":-0.1244507016947092,"8":-0.4212077430216464,"9":0.1998614407693066,"10":0.04784875330730603,"11":-0.14703874496673605,"12":-0.07669790145749407,"13":0.15119823403678373,"14":-0.027379855339610317,"15":-0.03660176876333243,"16":-0.1377901506908884,"17":-0.09256746527234556,"18":0.4016309607441163,"19":-0.18652972837446302}},{"sx":1,"sy":1,"depth":20,"w":{"0":-0.04952102026667514,"1":-0.2978280104646268,"2":-0.09589391426922732,"3":-0.023232630372790372,"4":0.11690399639007765,"5":-0.4388649491148142,"6":-0.11139848834929136,"7":-0.19340790661776816,"8":-0.042517291359343824,"9":0.006742825973400159,"10":0.05827835020818456,"11":-0.44093898870245374,"12":0.26859621218636387,"13":-0.22267462976691138,"14":-0.21798531722093042,"15":0.006876111318821852,"16":-0.13496359728414967,"17":0.23012334784337876,"18":-0.12012324086383042,"19":0.1779817379927236}},{"sx":1,"sy":1,"depth":20,"w":{"0":-0.03550126611630223,"1":-0.35552964268788007,"2":-0.4042437475782848,"3":0.25296619021985584,"4":-0.2427407914999781,"5":-0.14443953891616873,"6":0.08096649458539154,"7":-0.2109571856279925,"8":-0.5003174920296454,"9":0.33657978499978236,"10":-0.17977776879770876,"11":-0.1732156615533962,"12":-0.3922921351500939,"13":-0.11537876618555089,"14":-0.09098971660514993,"15":0.26845304248636087,"16":-0.03191224136555831,"17":-0.005898823142500504,"18":-0.09024869430997899,"19":0.6967091509375386}},{"sx":1,"sy":1,"depth":20,"w":{"0":0.02387388419886537,"1":-0.009932390131788888,"2":-0.0009290482136236841,"3":-0.0011897464027771406,"4":-0.03446299630803495,"5":-0.03867882441604374,"6":-0.028010416606273566,"7":0.007407646084646629,"8":-0.01405899055423438,"9":-0.028110347079692878,"10":0.02516083885449333,"11":-0.051741340955813044,"12":-0.029763793319177466,"13":0.007147839796482989,"14":0.004541794875963767,"15":-0.013980680275234322,"16":-0.002565793961603271,"17":-0.015138315123428473,"18":0.029786149016938043,"19":-0.010819637295202033}},{"sx":1,"sy":1,"depth":20,"w":{"0":0.11652969176018807,"1":-0.26108876818654536,"2":-0.0928161245675756,"3":-0.2389602355498692,"4":0.0498345758098695,"5":-0.28920333215478067,"6":0.08489857828850172,"7":-0.07689747730240754,"8":-0.009453463694682628,"9":-0.23224982638623837,"10":-0.016471915815071497,"11":-0.30870832395521225,"12":0.06715540739976883,"13":-0.15875810796446072,"14":-0.11243311106211622,"15":-0.0751540933599556,"16":-0.07677048615196772,"17":0.6079719079473666,"18":-0.10774894787825841,"19":-0.02786108738428032}},{"sx":1,"sy":1,"depth":20,"w":{"0":-0.13682556934439818,"1":-0.22001353059070083,"2":0.4366256929999558,"3":-0.463052290232451,"4":-0.2989044283132363,"5":-0.28633099273404433,"6":-0.01341769758146672,"7":-0.42813322947595817,"8":0.4747276364712331,"9":-0.37569123611630556,"10":-0.30640909179007425,"11":-0.4455544968824956,"12":-0.1273156802776577,"13":-0.035552802943908716,"14":-0.2763633167148583,"15":0.47216057411341195,"16":0.09294222025250783,"17":-0.1982016332941102,"18":0.41766879370361654,"19":-0.176190040854395}},{"sx":1,"sy":1,"depth":20,"w":{"0":0.04230480376923296,"1":0.13726047503085925,"2":0.2730393417646839,"3":-0.36912664229065323,"4":-0.11108754889282402,"5":-0.1641153965748259,"6":-0.057828288201080554,"7":0.33521742794883497,"8":0.18397628457509738,"9":-0.5282210927152855,"10":-0.09108778658694532,"11":-0.18732555761622996,"12":0.14781691245321782,"13":-0.3909961613734262,"14":0.682463466787796,"15":0.07393394540107984,"16":0.002742326288238102,"17":0.03664398650316122,"18":-0.6042255337121245,"19":0.3367265541275546}},{"sx":1,"sy":1,"depth":20,"w":{"0":-0.4078382408142736,"1":0.16500407760191596,"2":-0.3784787990394241,"3":0.28055312879409267,"4":-0.155667076366678,"5":0.05407259474882723,"6":-0.36339925773462034,"7":-0.048398656065265735,"8":-0.3521388348801663,"9":0.1705813488093521,"10":-0.13289638758293582,"11":-0.10177216034177661,"12":0.3399367939745327,"13":-0.1612649463518017,"14":-0.05117511371158871,"15":-0.07394009223751931,"16":0.140952570315857,"17":-0.008947829145268345,"18":-0.1619514589618176,"19":0.09026105989267155}},{"sx":1,"sy":1,"depth":20,"w":{"0":0.009868722040406265,"1":-0.030594484573849303,"2":-0.022715786973260363,"3":-0.08793750608940515,"4":-0.02110845098013576,"5":-0.00907974683413136,"6":-0.02000904925110172,"7":0.024630317283440395,"8":-0.009604297057711634,"9":-0.10665420457215416,"10":0.01323007679449463,"11":0.001354865884504565,"12":0.02144146114621944,"13":0.000999493864926634,"14":-0.008240314835660768,"15":0.1055012157013237,"16":0.06020798152574369,"17":-0.06662713767674079,"18":-0.005125137814019138,"19":-0.02021026182947312}},{"sx":1,"sy":1,"depth":20,"w":{"0":-0.3225707362319306,"1":-0.3364373432727726,"2":0.17163165608811906,"3":0.04204377326841861,"4":-0.0049418547740242074,"5":-0.5455050888249778,"6":-0.368186700148658,"7":-0.7188248638250951,"8":0.21217486088519377,"9":0.10364034009481556,"10":-0.0034278670534113663,"11":-0.4503680930791553,"12":-0.03205812041451564,"13":0.004716486674852173,"14":-0.1868646712755275,"15":0.016915392073944446,"16":1.0056280558110473,"17":-0.9795358777596852,"18":0.45007133948289374,"19":-0.38698168802221894}},{"sx":1,"sy":1,"depth":20,"w":{"0":-0.24194593549328813,"1":0.054062334537020085,"2":-0.15185035607223832,"3":-0.16870316739546007,"4":-0.33434010631696537,"5":0.04855925565151791,"6":-0.2553520811580384,"7":0.11232573435091517,"8":-0.07181093811356595,"9":-0.10285995841157021,"10":-0.27472650926438186,"11":-0.0028865154339032745,"12":-0.25206851214940207,"13":0.028324510404828,"14":-0.13098013179438467,"15":0.3937075044786065,"16":0.0655642012879114,"17":-0.1019955582097986,"18":-0.12384132471752471,"19":-0.12450847566746652}},{"sx":1,"sy":1,"depth":20,"w":{"0":2.9975487890000925,"1":1.2859356282900989,"2":-0.03805913699905697,"3":0.06840512567326719,"4":-1.7355618239218313,"5":-0.7539149028086364,"6":2.476124576897751,"7":0.9639993943257974,"8":0.2706335308086338,"9":0.29024217569744326,"10":-1.8142635052065081,"11":-0.6559547060424956,"12":0.1509330374318043,"13":0.4969612119657999,"14":0.2137676251326869,"15":-0.8590444952325449,"16":0.24129138663994715,"17":-0.33313785770282883,"18":-0.3788412298523812,"19":-0.8274662053689356}},{"sx":1,"sy":1,"depth":20,"w":{"0":-0.0212192330733357,"1":-0.153595541316588,"2":0.008129854530041426,"3":0.102850508709179,"4":-0.0823869161092465,"5":0.01728588807837275,"6":0.13632915462038817,"7":-0.05836163594204723,"8":-0.1510391450748835,"9":-0.16111003139435284,"10":-0.07417079190384371,"11":0.018896605861455973,"12":-0.045235048353956614,"13":-0.01182356468059205,"14":0.16988911432703593,"15":-0.04616698546889633,"16":-0.028569870068634446,"17":0.07094970996986143,"18":-0.04892932039205984,"19":0.00991033260410101}},{"sx":1,"sy":1,"depth":20,"w":{"0":-0.031087474985295245,"1":-0.14777686413247845,"2":0.2490995645597253,"3":-0.3753249001263739,"4":0.036078360096993806,"5":-0.29993607656458743,"6":0.05956691443543439,"7":-0.2835334468146876,"8":0.274294520108788,"9":-0.28530040167191956,"10":-0.01572168258667157,"11":-0.3490722108208517,"12":-0.18228098148141214,"13":-0.12016836540083692,"14":0.17507304166208834,"15":0.42574213518011994,"16":0.024262633524348678,"17":-0.1816462931993084,"18":0.1778524027567967,"19":-0.06044668016416771}},{"sx":1,"sy":1,"depth":20,"w":{"0":-0.01687248169816427,"1":-0.019937250375880525,"2":0.007556480255771321,"3":-0.015384714318933825,"4":-0.020296985884626518,"5":-0.03162683712952216,"6":-0.01562893256543238,"7":-0.01517904527270506,"8":-0.03084377122307667,"9":0.01273166035070403,"10":0.0015076737868288496,"11":-0.01325625051787234,"12":0.009269575506974905,"13":0.021549516580171416,"14":0.005636406573851194,"15":-0.03119451012114255,"16":-0.02154180712445599,"17":0.045999168113435226,"18":0.027342126660641265,"19":-0.059497432397434664}},{"sx":1,"sy":1,"depth":20,"w":{"0":-0.08768848552863412,"1":-0.190997714092845,"2":0.01927108190939887,"3":0.023908581513305105,"4":0.0008874801299253416,"5":-0.09070495691048985,"6":-0.06705089553644665,"7":-0.11736839415939322,"8":-0.04629131231417318,"9":0.008415208430357316,"10":0.0503384940904467,"11":-0.06691156841956548,"12":-0.02988625030452235,"13":0.13128800390554596,"14":-0.011591298256311942,"15":-0.046270308043207656,"16":-0.010419638127220765,"17":-0.04750507767908594,"18":-0.0027157535796009415,"19":-0.025712760558505358}},{"sx":1,"sy":1,"depth":20,"w":{"0":0.02324242622034556,"1":-0.008768192839468236,"2":-0.01595932029426944,"3":-0.04027172172816838,"4":-0.01763574360916373,"5":0.04281070665364983,"6":-0.03524114485398429,"7":-0.0242975903535043,"8":-0.022221727793866285,"9":-0.03003439946872955,"10":0.0010984315841107294,"11":-0.052705562653931136,"12":-0.005527279078628952,"13":-0.028771273017921522,"14":0.011219553345085455,"15":0.0006707284925019824,"16":0.05904623855215711,"17":-0.017456853995053537,"18":-0.029376890956705943,"19":-0.01532253631480858}},{"sx":1,"sy":1,"depth":20,"w":{"0":-0.2017546262624146,"1":-0.18337642964600803,"2":0.03746894351461642,"3":0.09090709754064498,"4":-0.2215295968112478,"5":-0.2540104647811968,"6":-0.1189204703948763,"7":-0.19154236391475235,"8":0.01487554921089145,"9":0.015702513080715123,"10":-0.19806658523195636,"11":-0.1885768827427426,"12":-0.07150124130284306,"13":-0.07963241660751476,"14":-0.08861525233577834,"15":0.5363326622064484,"16":-0.1633194753596046,"17":-0.05087905856419679,"18":0.3500375695258617,"19":-0.0339813489463893}},{"sx":1,"sy":1,"depth":20,"w":{"0":0.09796913045883383,"1":-0.329173010141427,"2":-0.3218825545761283,"3":-0.1835359468103756,"4":0.09000296582183447,"5":-0.30438834471712,"6":0.06984295649855263,"7":-0.34745562358464954,"8":-0.38857098230133597,"9":-0.16839223797991468,"10":0.09985008026320044,"11":-0.3871863876511504,"12":0.13611269133175244,"13":0.20296793880670036,"14":-0.14396679015730107,"15":-0.22982809739151888,"16":-0.2176354219273951,"17":0.22715344815831054,"18":0.34005501362820645,"19":-0.1331770770921209}},{"sx":1,"sy":1,"depth":20,"w":{"0":-0.05268763157993269,"1":0.15419498524512706,"2":-0.2520910589084676,"3":-0.32772442409684904,"4":-0.07977606859076193,"5":0.01996540157366066,"6":-0.06326861731954397,"7":0.2741579900075237,"8":-0.2723266483923249,"9":-0.30475620558469213,"10":-0.10104173914000424,"11":-0.04090599192243788,"12":0.2041592300531841,"13":-0.14380224526966115,"14":-0.18551553127369852,"15":-0.14970685048922217,"16":-0.3373812539133843,"17":0.719516627798946,"18":0.17037970891044124,"19":-0.1050774162402689}},{"sx":1,"sy":1,"depth":20,"w":{"0":-0.0037290707193366763,"1":-0.01532933287697038,"2":0.009227442167920962,"3":-0.03615360881859557,"4":-0.014796822058409147,"5":-0.016672397677056094,"6":-0.007119976234498193,"7":0.012130755534378784,"8":-0.054438159520797995,"9":-0.06495924865274585,"10":-0.0534406740956478,"11":-0.004106316769132191,"12":0.029485368231649024,"13":-0.015470223818304043,"14":-0.06414831627787826,"15":0.002197053545135071,"16":-0.040634810825044686,"17":-0.06914208608052436,"18":0.0401676218597248,"19":-0.021786020016742857}},{"sx":1,"sy":1,"depth":20,"w":{"0":0.3842465214925605,"1":1.3206189212813433,"2":-0.11643264940284949,"3":0.10825579890280848,"4":0.17167658010778697,"5":-1.1018058737231162,"6":0.28508095843323655,"7":1.2609714618214307,"8":-0.036713577949330736,"9":0.2684669598531875,"10":0.11101996360049309,"11":-1.1198859595996415,"12":0.02901583046177249,"13":-0.2573518690248277,"14":0.09038398211478114,"15":-0.28251413001452524,"16":0.10881314218389086,"17":-0.13042300397987427,"18":-0.29509051769619954,"19":0.21123414852150754}},{"sx":1,"sy":1,"depth":20,"w":{"0":-0.12500430071228186,"1":-0.017213487630422426,"2":0.0025228096400591307,"3":-0.07385536130698149,"4":0.05465783563341724,"5":0.021058715691034464,"6":-0.08481332263254836,"7":-0.11012710196948594,"8":-0.030516216330988454,"9":-0.15134152037452872,"10":0.012693924267311927,"11":-0.01609644866972667,"12":-0.06973541608045022,"13":0.074099089100312,"14":-0.02971119184262407,"15":-0.027352157261496694,"16":0.06524373223514449,"17":-0.018805445395617865,"18":0.04386350867274688,"19":-0.04353644864612239}},{"sx":1,"sy":1,"depth":20,"w":{"0":0.07518988980601221,"1":-0.013536636425735086,"2":0.0383115993767621,"3":-0.42267370088240586,"4":0.1477109087646095,"5":-0.02406575981289049,"6":-0.0025877744702363288,"7":-0.026704113266053153,"8":0.057817688422762456,"9":-0.4084693403513384,"10":0.1273655914325843,"11":-0.022077601182689355,"12":0.29577308730749724,"13":-0.17467193379032137,"14":-0.11736745068060969,"15":-0.0554590007686783,"16":0.09760553339095379,"17":0.35712028647819755,"18":-0.30152697041757287,"19":-0.1387022321212426}},{"sx":1,"sy":1,"depth":20,"w":{"0":-0.18749574806386135,"1":-0.09114263130375,"2":-0.1461134850763639,"3":0.10351619363986415,"4":-0.1560461955529847,"5":0.0468812216761424,"6":-0.12192791190678454,"7":0.03087814575783457,"8":-0.13975721897053903,"9":0.1309274018558207,"10":-0.14187319110785426,"11":-0.025801567042787438,"12":-0.017839173548760225,"13":-0.1621431454207958,"14":-0.0013789266307689888,"15":-0.08153495071677065,"16":-0.10157444507905644,"17":-0.1874873070459732,"18":-0.09777545718523908,"19":0.6302709298349134}},{"sx":1,"sy":1,"depth":20,"w":{"0":-0.17119609440670502,"1":-0.15064922053854082,"2":0.2061923171622052,"3":-0.2555224341803618,"4":-0.05933540462078757,"5":-0.19419463663069989,"6":0.04010917520748188,"7":-0.25323641216635123,"8":0.18841616837562422,"9":-0.2885299101684104,"10":-0.06711682891295334,"11":-0.24847087091818595,"12":-0.10597124173646362,"13":-0.05201494655834018,"14":-0.11457328868960695,"15":0.447748920351795,"16":-0.04037393099053805,"17":-0.101353181721548,"18":0.458740893892233,"19":-0.08216923852988046}},{"sx":1,"sy":1,"depth":20,"w":{"0":-0.03390623453123156,"1":-0.005973640600392479,"2":-0.056895348021968384,"3":0.056417320735525904,"4":0.007087698553713098,"5":-0.04781100932960938,"6":-0.037106562952458226,"7":-0.06072398475261066,"8":-0.05813612261343755,"9":0.06614846764667584,"10":-0.0772814196442769,"11":-0.038797020530043115,"12":-0.04180143905712959,"13":0.014333706968828831,"14":-0.024177165125587406,"15":0.04534141071316392,"16":-0.03983339818927522,"17":-0.015130634857013818,"18":-0.0210193118730827,"19":-0.025173278713285452}},{"sx":1,"sy":1,"depth":20,"w":{"0":-0.06923632682370401,"1":0.11925958744842088,"2":0.05085762595930222,"3":-0.24462641364808496,"4":-0.2266745863718455,"5":-0.15233311946600453,"6":-0.16669320368838153,"7":0.2487001849069983,"8":0.046405999928067654,"9":-0.18956993697129346,"10":-0.3184832472622489,"11":-0.12496878019809124,"12":-0.2544261943943443,"13":0.00252891691033702,"14":-0.23698235061406045,"15":0.0050302116950085626,"16":0.15497304695185415,"17":0.4189437909674845,"18":-0.04230193691123667,"19":0.018070344599250526}},{"sx":1,"sy":1,"depth":20,"w":{"0":-0.08513512893775087,"1":-0.03206368178883972,"2":-0.033165232381309126,"3":-0.04682655985380443,"4":0.03994804547079104,"5":-0.013046610582435048,"6":-0.05767240322141543,"7":-0.06676624885698085,"8":0.0043660047990344755,"9":-0.08842521732896248,"10":0.01977618930142908,"11":-0.004911112714834516,"12":-0.02112971624025574,"13":0.01540219422113397,"14":-0.02936016716265412,"15":-0.02429352906025693,"16":0.016963614880432194,"17":0.019968061835233156,"18":0.05782331159537843,"19":-0.013001407330667061}},{"sx":1,"sy":1,"depth":20,"w":{"0":0.11979369313599099,"1":-0.09722324676486177,"2":-0.44796092555135697,"3":-0.22308658313044877,"4":0.05477635685632805,"5":-0.09463806662778024,"6":0.07792824394667985,"7":-0.11401574023288162,"8":-0.5019231933949435,"9":-0.15391281611900126,"10":0.07503391445560664,"11":-0.14157010755570434,"12":-0.11591131767309104,"13":0.2331668362287216,"14":0.22938640262338214,"15":-0.11212100404622292,"16":-0.007811890599239801,"17":-0.2365496302784485,"18":0.1976827019087841,"19":-0.06146145765118078}},{"sx":1,"sy":1,"depth":20,"w":{"0":-0.4315241932977711,"1":-0.14776153333855538,"2":-0.15456698426930865,"3":0.17371657318024175,"4":-0.40996764201300506,"5":-0.07883181626858475,"6":-0.1510702370137393,"7":-0.10535462919797745,"8":-0.08934690412110859,"9":0.2056304538988973,"10":-0.42417755508884136,"11":-0.08182354415987643,"12":-0.019840464047559396,"13":-0.3196858652054691,"14":-0.0712683029698744,"15":0.653275681360951,"16":-0.42028502794943234,"17":0.08788687826771382,"18":-0.15187043419105872,"19":0.1752401233774354}},{"sx":1,"sy":1,"depth":20,"w":{"0":-0.07244515761665682,"1":0.44919217616867135,"2":-0.4263510823033775,"3":0.035558950176030904,"4":0.0021692005727723816,"5":0.14881726086458183,"6":-0.14685765969932713,"7":0.4550905009064462,"8":-0.38922728427066705,"9":0.06441661677596107,"10":-0.024507010944880163,"11":0.1574892103578425,"12":-0.12803903950249523,"13":-0.23331997502670504,"14":0.17458441748167372,"15":0.5383815466148614,"16":0.3421296219300867,"17":-0.10402845300890302,"18":-0.362921902524535,"19":-0.21779475468939646}},{"sx":1,"sy":1,"depth":20,"w":{"0":-0.04673123227394144,"1":-0.004500834626953716,"2":-0.01594810380456401,"3":-0.07140573056717077,"4":-0.0939615958953036,"5":-0.013025054242057786,"6":-0.09590777171032301,"7":0.000761494785030438,"8":-0.04847326434152076,"9":-0.11564304456410666,"10":-0.024280117371816474,"11":0.030114101642443786,"12":-0.008902931060785485,"13":-0.05654518500505115,"14":-0.009837697877178767,"15":0.0035783504086026835,"16":0.006534409028765569,"17":0.04340355729771236,"18":0.0141367201101682,"19":-0.02940203490239323}},{"sx":1,"sy":1,"depth":20,"w":{"0":0.01675797134743962,"1":0.017961402808701312,"2":0.009219084662587593,"3":0.03991320915617083,"4":-0.05749928032198674,"5":-0.0044680240891382785,"6":-0.04144223355553273,"7":-0.027509069566324627,"8":-0.027829009912524013,"9":-0.04399277455026665,"10":0.02297796656081609,"11":-0.006270793113239416,"12":-0.0377574856786787,"13":0.014660436798026063,"14":-0.04315222530852492,"15":-0.017818524904572402,"16":-0.012509785883840446,"17":-0.02008656502496571,"18":0.033085917968676694,"19":-0.06002179242107499}},{"sx":1,"sy":1,"depth":20,"w":{"0":-0.00002350702061274691,"1":-0.05977489333691012,"2":-0.08899379598578079,"3":0.09379780493295015,"4":-0.0937358504062218,"5":-0.09620106364881671,"6":0.014939309680101247,"7":0.06567650649460359,"8":-0.16394673183333924,"9":-0.0951043540783529,"10":-0.05240170129854527,"11":-0.07161441671977531,"12":-0.038621946654302075,"13":-0.05395605993006439,"14":0.3440001830047064,"15":-0.03352084496653973,"16":-0.019998895232378033,"17":-0.001289043806081814,"18":0.04362082633340362,"19":-0.061685145049076406}},{"sx":1,"sy":1,"depth":20,"w":{"0":-0.06418222581838094,"1":0.026393484438333906,"2":-0.11995258274585019,"3":-0.14400271254873298,"4":-0.0726957572616736,"5":0.016124423106264975,"6":-0.04000728866920086,"7":0.059877387839102084,"8":-0.056842733952151975,"9":-0.18015649555248325,"10":-0.12172102508414365,"11":-0.0554806216119855,"12":0.01684556956101791,"13":-0.03538998339605606,"14":0.004289589127711064,"15":-0.07950707419293515,"16":-0.12675459481843937,"17":0.17645238517246042,"18":0.11573268186596336,"19":-0.009450935244375968}},{"sx":1,"sy":1,"depth":20,"w":{"0":0.05088568332791452,"1":-0.03658277600480896,"2":-0.054749099698721035,"3":-0.02981438425108555,"4":-0.0468985463985721,"5":0.026754277569858768,"6":-0.028946584891667404,"7":0.014706862955510555,"8":0.0063510932585244765,"9":0.01545287108250726,"10":-0.021329796322634213,"11":-0.02448256342970109,"12":-0.0277475632247924,"13":0.024917965654861967,"14":-0.024013399135345382,"15":0.035199461298798154,"16":0.010975159676913102,"17":0.016778737206794694,"18":-0.027713396087345694,"19":0.05423697154524087}},{"sx":1,"sy":1,"depth":20,"w":{"0":-0.035892892079272105,"1":-0.12690649400234166,"2":-0.36885593590976634,"3":0.3395279556584023,"4":0.044600684431024065,"5":-0.2532668110346688,"6":-0.23210083317572422,"7":-0.024779366091717245,"8":-0.49948422329704584,"9":0.27998082773885724,"10":0.0604872949141912,"11":-0.1604783947452746,"12":-0.19149891804878186,"13":0.18884424584233486,"14":0.9461184823543749,"15":-0.03270529148844724,"16":0.11390077321957112,"17":-0.0813726052176005,"18":-0.3786111545386905,"19":-0.036981324383517006}},{"sx":1,"sy":1,"depth":20,"w":{"0":-0.3480417690337683,"1":0.5839846171538196,"2":0.10392077987431392,"3":0.17393333811905642,"4":-0.34305778602639786,"5":0.3357395053199966,"6":-0.45303691587544126,"7":0.4981696363221699,"8":0.07600242522735298,"9":0.19319027023783206,"10":-0.36205548035403534,"11":0.32013893240334407,"12":-0.3820878403782702,"13":0.24417950009527342,"14":-0.13019663506279128,"15":-0.510317523653725,"16":0.36211947522006804,"17":0.028246641450903373,"18":0.5884375346536376,"19":-0.020508886438118122}},{"sx":1,"sy":1,"depth":20,"w":{"0":-0.08708173989553601,"1":0.014723892024997437,"2":-0.08884080906924381,"3":-0.12764986785459276,"4":-0.09982611467033649,"5":-0.005626658198062114,"6":-0.01965309034739017,"7":0.014500079312528679,"8":0.009362784663997184,"9":-0.05688697359154373,"10":-0.08995345747849613,"11":0.013386424023048184,"12":-0.009236603039792044,"13":0.005461517211818837,"14":-0.05597944795489958,"15":-0.053999872463799795,"16":-0.03600088554109359,"17":-0.0046776003760250675,"18":0.1319411364905734,"19":-0.08329093444771078}},{"sx":1,"sy":1,"depth":20,"w":{"0":-0.06732260702225548,"1":-0.02545396914097781,"2":-0.01657103014135455,"3":0.019867723070902118,"4":-0.09337373049905136,"5":0.011615904803414403,"6":-0.10358305563705439,"7":-0.13274432681495013,"8":-0.03356541024371403,"9":0.010740311080333418,"10":-0.08120099126752937,"11":0.018670821147255056,"12":-0.11476179164251155,"13":-0.04770689819424037,"14":-0.099889984080434,"15":0.010641481393688893,"16":0.09935688857457319,"17":0.0821633991425024,"18":0.33910088254483695,"19":-0.10299619329161755}},{"sx":1,"sy":1,"depth":20,"w":{"0":0.08466490416389431,"1":-0.02526081114649029,"2":-0.07034364900650164,"3":-0.035070006774659504,"4":-0.09999775352983366,"5":-0.04865195972228335,"6":-0.0012644754569977508,"7":-0.0708251036740743,"8":-0.11746242697172148,"9":-0.0033261039176749863,"10":-0.014768623471818459,"11":-0.02031685641797216,"12":-0.028042454486192102,"13":-0.010046097291440643,"14":0.04096645991630477,"15":-0.011982090346148184,"16":-0.018737822053965406,"17":0.0004566064145062582,"18":0.06093789668936493,"19":-0.017829932044948905}},{"sx":1,"sy":1,"depth":20,"w":{"0":-0.0587296319042617,"1":0.008546390457554075,"2":0.08121030055018316,"3":-0.4187268160617761,"4":0.04665281803500879,"5":-0.05858131478859704,"6":0.017035074999919263,"7":0.1809401552707314,"8":0.082320813686629,"9":-0.4187508105410445,"10":0.06805671064817483,"11":-0.12168425836097296,"12":-0.15783477809290988,"13":0.4354197886908976,"14":-0.06329851895279091,"15":0.25658081183103704,"16":-0.2708686241047615,"17":-0.11618822141373177,"18":-0.28187312122459574,"19":0.08939352383250371}},{"sx":1,"sy":1,"depth":20,"w":{"0":-0.15438508733310205,"1":-0.011748639323469716,"2":0.14239624639944695,"3":-0.2793101576823284,"4":-0.08081828756031868,"5":-0.09202361741855906,"6":-0.15512005580546287,"7":0.030505988826448772,"8":0.131567107954673,"9":-0.22403799075041037,"10":-0.06874424410736409,"11":-0.13340125202920847,"12":-0.06428255330244244,"13":-0.09842280060768521,"14":-0.05532122081373518,"15":-0.009573263333188598,"16":0.11449961760757978,"17":0.19369198360272583,"18":0.07122483296790048,"19":-0.07457874557633688}},{"sx":1,"sy":1,"depth":20,"w":{"0":-0.052475907667654205,"1":0.04015489556282095,"2":-0.14803772158765974,"3":-0.006834806074656638,"4":-0.20834919109990302,"5":-0.013768419427131648,"6":0.007929897485252123,"7":0.020346779210358802,"8":-0.17292002351492858,"9":0.07339657283368957,"10":-0.24353150643487734,"11":0.0045722513579711625,"12":0.0721148219473872,"13":-0.11504590498508291,"14":0.007725223319814822,"15":0.3382721843921202,"16":-0.1309825763166173,"17":0.022630410166352075,"18":-0.12616141911418066,"19":-0.08872912769098436}},{"sx":1,"sy":1,"depth":20,"w":{"0":0.03769584986733502,"1":-0.1827787063216752,"2":-0.19774587321676607,"3":-0.3258671367968414,"4":0.287797706338755,"5":-0.27484034355129866,"6":0.04366265230864172,"7":-0.16742048392982153,"8":-0.17515396711205936,"9":-0.3705844628833814,"10":0.24405661833590125,"11":-0.3030676252359199,"12":-0.023514241287270667,"13":0.2919659181659061,"14":0.34422211468539626,"15":0.15605290890105528,"16":-0.161863887747043,"17":-0.07883322423374846,"18":-0.27568439532752925,"19":-0.03628497686366944}},{"sx":1,"sy":1,"depth":20,"w":{"0":-0.03370012218527837,"1":0.019937023596236662,"2":-0.051506510265653956,"3":-0.11879187380598033,"4":-0.07115820224663845,"5":-0.02694534657197482,"6":-0.01057142876846344,"7":0.03253787466212152,"8":-0.05714733569345919,"9":-0.1019864827371409,"10":-0.07253597757967298,"11":0.0012977623329790127,"12":-0.03408276398485439,"13":0.03267904213156718,"14":-0.014130583091523354,"15":-0.02408008880441096,"16":-0.004987863863521885,"17":0.14220451620170374,"18":-0.04788900358172934,"19":-0.10277898188512702}},{"sx":1,"sy":1,"depth":20,"w":{"0":-0.11309556219504457,"1":-0.14869137438303423,"2":0.14249307463228422,"3":-0.17311401101191684,"4":-0.04552168558432813,"5":-0.24570831607382035,"6":0.039107230179988316,"7":-0.2782768740131039,"8":0.2135374270843201,"9":-0.16803123138595066,"10":-0.017094231254534655,"11":-0.31849984498797845,"12":-0.031778822980885746,"13":-0.16211779227929787,"14":-0.03558186198688425,"15":0.26053655720413116,"16":0.16779226741502043,"17":-0.10832970203594895,"18":0.3019683911262614,"19":-0.11416635641048202}},{"sx":1,"sy":1,"depth":20,"w":{"0":-0.11168185586708942,"1":0.12312454095978112,"2":-0.3998931752927931,"3":0.06041033309115874,"4":-0.01967335774124132,"5":0.010667111421474017,"6":0.04678237972840487,"7":-0.060764463670249076,"8":-0.4110255564708229,"9":0.13258576054221916,"10":-0.09466403263759694,"11":0.006342251369730995,"12":0.14926961766852015,"13":-0.06388962957665974,"14":-0.0481683720138403,"15":0.20594020619996442,"16":-0.10166384766420944,"17":-0.0767825033132496,"18":0.2553854496166876,"19":-0.10018169935729482}},{"sx":1,"sy":1,"depth":20,"w":{"0":-0.10931901591137239,"1":-2.17604856737419,"2":0.19588009706830106,"3":-0.15555417158228743,"4":0.6789142382325039,"5":2.6839832061872366,"6":-0.2607532236244674,"7":-1.9011553598832913,"8":0.316088350976899,"9":-0.1473121127334115,"10":0.5605213840237777,"11":2.6119886173510567,"12":-0.18995303349892098,"13":0.5703726785638318,"14":0.027370726155468532,"15":-0.7532855742171194,"16":-0.34127032402635027,"17":0.09466565551234775,"18":-0.5703647533296619,"19":0.4510321206985241}},{"sx":1,"sy":1,"depth":20,"w":{"0":-0.09342418259028426,"1":0.0026448807992290177,"2":0.04809344499843624,"3":-0.10210185594461665,"4":-0.005370049318917779,"5":0.001226381313479875,"6":-0.07414770043755453,"7":-0.05212365729423693,"8":0.0715894313642837,"9":-0.15952905136339307,"10":0.003222794179461134,"11":-0.009873803774565324,"12":0.010096359200766647,"13":0.04517758419991547,"14":0.008480014058175311,"15":0.043892521335692575,"16":0.00709381305857551,"17":0.05297741787344294,"18":0.13655957116968478,"19":-0.058334722664520534}},{"sx":1,"sy":1,"depth":20,"w":{"0":-0.17059922762520396,"1":-0.5308814365828081,"2":-0.054528201599906005,"3":0.2787850251962441,"4":-0.14286302052502609,"5":-0.2146171734064916,"6":-0.19308444313405956,"7":-0.502315935674251,"8":-0.25468074899557835,"9":0.31804993064788506,"10":-0.05836807432071411,"11":-0.24271079683125815,"12":-0.23371806421649532,"13":-0.11203835511061791,"14":0.14053725920406238,"15":0.5252568861785947,"16":0.4207144800236091,"17":-0.21850271188316553,"18":-0.5490673349319688,"19":0.1708779660747463}},{"sx":1,"sy":1,"depth":20,"w":{"0":-0.0863970835757208,"1":-0.055740624340329184,"2":-0.0767934855186147,"3":0.0035253572491070174,"4":-0.07386819650269873,"5":0.03586697162224804,"6":-0.10081490637961311,"7":-0.05780624978754846,"8":-0.0512781932103964,"9":0.013357260641028912,"10":-0.03506793247083709,"11":0.008683820002220798,"12":-0.06548964203665229,"13":0.040338812004661426,"14":0.01289274469690172,"15":0.050353743286262534,"16":-0.015743788327106285,"17":-0.03194657198807819,"18":0.1003318187384893,"19":-0.03721665212693906}},{"sx":1,"sy":1,"depth":20,"w":{"0":-0.33097709902136463,"1":0.015514691996778135,"2":-0.060533323768378715,"3":0.016303267745803242,"4":-0.31634627278538013,"5":0.007059026606449262,"6":-0.3236150312737065,"7":-0.01308734916788106,"8":-0.0959915502035753,"9":0.07706728082931623,"10":-0.3463514296968487,"11":-0.03257725316740696,"12":-0.0515253218153516,"13":-0.08973670970745214,"14":-0.0793747810447571,"15":-0.07025624070252895,"16":-0.031923894509947676,"17":-0.05156256748652395,"18":0.11396153790009286,"19":0.2394962671145126}},{"sx":1,"sy":1,"depth":20,"w":{"0":-0.3065299210467399,"1":0.05375906774389956,"2":-0.14066264854047456,"3":-0.0501624626681479,"4":-0.324941625666186,"5":0.06515244559187124,"6":-0.27996911686143133,"7":0.051676210920760815,"8":-0.11340981963570179,"9":-0.05165832893266839,"10":-0.39095884469746317,"11":0.04353958464849262,"12":0.37146005402254834,"13":0.14653572549567004,"14":-0.08927661267182102,"15":0.049466738668976946,"16":-0.19373210166379132,"17":-0.1246353246846962,"18":-0.38654593732970716,"19":0.16788915493974713}},{"sx":1,"sy":1,"depth":20,"w":{"0":-1.895707207265742,"1":1.6753654630601373,"2":0.019140411559746204,"3":0.5337069624807713,"4":2.2328153399263937,"5":-0.6276311180678871,"6":-1.5856081348224378,"7":1.762709711964581,"8":-0.018705422457168743,"9":0.495335617435597,"10":2.1681456714271587,"11":-0.5103877121747145,"12":0.09972971260818472,"13":-0.0684031107763022,"14":-0.6211179685772064,"15":-0.44426289994303453,"16":-0.42269542593936826,"17":-0.2612376721490394,"18":0.3893887116700111,"19":0.20036132380195418}},{"sx":1,"sy":1,"depth":20,"w":{"0":-0.26665688558243833,"1":-0.20313407403855466,"2":0.10337602309694621,"3":-0.3977940782231692,"4":-0.2267984159612621,"5":-0.13669005009318305,"6":-0.04880654019529628,"7":-0.175648739030691,"8":0.1125288788157503,"9":-0.23161124291806284,"10":-0.17511673061609662,"11":-0.2100346249752027,"12":-0.0720137399007972,"13":0.09521684295389592,"14":-0.294704578706997,"15":1.4553213428523635,"16":-0.2780596593441758,"17":-0.13717204034844427,"18":-0.2592771309954203,"19":-0.01732642011485178}}],"biases":{"sx":1,"sy":1,"depth":60,"w":{"0":-0.05752863286978931,"1":0.10093705450083446,"2":0.0837400443689006,"3":0.1325527058556938,"4":0.14832880463031978,"5":0.11660107609428322,"6":0.09567007605541153,"7":0.15747569345015192,"8":0.10804680408194264,"9":0.18485053910421415,"10":0.15220313463317636,"11":0.10048796500648345,"12":0.04275875892337887,"13":0.020225960305262292,"14":-0.5970071410774145,"15":0.11693338811710073,"16":0.23792887544890212,"17":0.09939810610596529,"18":0.05937000807685184,"19":0.10005536162266651,"20":0.18017288791968533,"21":0.22974710113719393,"22":0.20214582749271096,"23":0.10007724058152583,"24":-0.01623668455717719,"25":0.0769824631279321,"26":0.19997788889448478,"27":0.0767925246541674,"28":0.27074621348149114,"29":0.10846080639583386,"30":0.10738710346319287,"31":0.08359003865368883,"32":0.1817397052594068,"33":0.13064441008412164,"34":0.08237826400788352,"35":0.06836594325397496,"36":0.10030173238187326,"37":0.22935867040914792,"38":0.052048098403353144,"39":0.09888752075957934,"40":0.27177838108980434,"41":0.22674667520024472,"42":0.09265116624125577,"43":0.14078389994998192,"44":0.08445005112767667,"45":0.029409243758136035,"46":0.08128753712980383,"47":0.10372375055339748,"48":0.21896054955022026,"49":0.03927139323480325,"50":0.17447184272739796,"51":0.19960579719352448,"52":-0.2323702004048699,"53":0.08958773299123574,"54":0.08559415965712788,"55":0.08201555439286376,"56":0.042058373471133156,"57":0.08238131495481697,"58":-0.42214777322975217,"59":0.24922821749226834}}},{"out_depth":60,"out_sx":1,"out_sy":1,"layer_type":"relu"},{"out_depth":80,"out_sx":1,"out_sy":1,"layer_type":"fc","num_inputs":60,"l1_decay_mul":0,"l2_decay_mul":1,"filters":[{"sx":1,"sy":1,"depth":60,"w":{"0":-0.06625678276397146,"1":0.007153786352068416,"2":0.0863641851503312,"3":-0.06223329931980433,"4":-0.10218983342129219,"5":-0.055549471237616055,"6":-0.000374259901029017,"7":-0.05265549121773369,"8":-0.1825582202910326,"9":-0.007962376869793298,"10":-0.06691571199202574,"11":-0.029775758474430005,"12":0.10418109592152314,"13":0.13018239601262346,"14":-0.3063643819295059,"15":-0.028890637993951307,"16":0.028101103920879902,"17":0.005894359193702318,"18":0.05774601120132146,"19":-0.0049749017829330885,"20":0.0011274511421454718,"21":-0.05178717299150319,"22":-0.10895220774808756,"23":-0.01845799055938845,"24":-0.19628027439652096,"25":0.055452894922328994,"26":-0.029376117048511872,"27":0.05569869485643941,"28":0.0186481645375153,"29":0.0019074527061415858,"30":-0.06979997734164788,"31":0.0027935342494647486,"32":-0.029491479339401175,"33":-0.05377785710409442,"34":-0.06616306154066409,"35":0.00503028929764604,"36":-0.022252199957886902,"37":-0.009778557771233562,"38":0.00891403881092286,"39":-0.0014701853289524906,"40":-0.0027971610564373733,"41":-0.10617822822752705,"42":0.01785812948556776,"43":-0.005350532042883819,"44":-0.02393674052880365,"45":-0.1234499052975789,"46":-0.05699870705864449,"47":-0.010285286592641432,"48":-0.09264141148356982,"49":-0.013676955186994067,"50":-0.006835116479573487,"51":-0.047247907712700495,"52":-0.24728470933586102,"53":0.0589941522043674,"54":0.02184084320055402,"55":-0.04535464526206923,"56":-0.02352505118032936,"57":-0.08195009489475327,"58":-0.29315108010257435,"59":0.014379602425384596}},{"sx":1,"sy":1,"depth":60,"w":{"0":-0.09649244623085482,"1":-0.010716107793058207,"2":0.05491681695474274,"3":-0.008037188050202147,"4":0.0029143725947865617,"5":-0.040271428228835955,"6":-0.015577335396850764,"7":-0.01044309734340654,"8":-0.07621094091166895,"9":-0.046259280006973734,"10":-0.09749634138962998,"11":0.02157637177049403,"12":-0.03510312862986856,"13":-0.0174067610105675,"14":-0.25606983242270626,"15":-0.006181605388954808,"16":-0.0964067524629919,"17":-0.017508205537220774,"18":0.016065800869880346,"19":-0.013055181467273603,"20":0.03275316925407569,"21":-0.061357457802359065,"22":-0.1775890398308529,"23":-0.006496887070687484,"24":-0.13143895809478964,"25":-0.0033923116150561578,"26":-0.0013052704085691747,"27":-0.026456443432845762,"28":-0.009791236820056429,"29":-0.005214562481071884,"30":0.021765430672675404,"31":0.006418688678141567,"32":-0.036276848141801675,"33":0.0027992536365778658,"34":-0.13821915143973526,"35":-0.04132726300117511,"36":0.004318300850841636,"37":-0.011699402092597663,"38":-0.015784592824443198,"39":0.04098872988983815,"40":-0.08506549747461754,"41":-0.052991940381347524,"42":0.003653525589693717,"43":0.006535266891799913,"44":-0.009459808454478408,"45":-0.009432472069043702,"46":-0.09460985871613542,"47":-0.04048724181608836,"48":-0.0817850055821096,"49":0.0706945667966063,"50":-0.02560996213463065,"51":-0.026343873867142667,"52":-0.25533169958399393,"53":0.0033545552430987503,"54":-0.02933728252743562,"55":-0.010385206375633055,"56":-0.05996242344517368,"57":-0.009143190554183608,"58":-0.16503204435736893,"59":-0.07950456678471396}},{"sx":1,"sy":1,"depth":60,"w":{"0":-0.06578567561720546,"1":-0.004419987280142332,"2":-0.056803453316040656,"3":0.07212622232080115,"4":-0.09115354841969282,"5":-0.05328102802353659,"6":0.011739787961890853,"7":-0.023907021845777962,"8":-0.0711295764897216,"9":-0.10115750650870234,"10":-0.02183084188863538,"11":-0.00026359929595187704,"12":0.015692392983052375,"13":-0.05452812678160439,"14":-0.2009859334378749,"15":-0.008739718914327007,"16":0.009944997768817186,"17":0.026561296670736576,"18":0.03367409101664092,"19":-0.03635957833976869,"20":0.00688312407922769,"21":0.008815428088361279,"22":-0.01822714180676805,"23":0.000267891409820899,"24":-0.09946170801599861,"25":0.02859341473524021,"26":0.0016000729135749088,"27":-0.020816414663001912,"28":0.030583007348231023,"29":0.0116042855259022,"30":-0.056475698499464586,"31":0.025718517549680697,"32":0.0867978715873208,"33":-0.05881017580285143,"34":-0.14224866060511268,"35":0.000806076467947096,"36":-0.006696581507932828,"37":0.0022106870592544592,"38":0.00018506559012190557,"39":0.007133832596271849,"40":-0.1364268748302738,"41":-0.07995373830477105,"42":0.04395462071707801,"43":-0.021884739231209184,"44":0.009531550820490968,"45":-0.10391510143790048,"46":-0.09616766540367723,"47":-0.03953278611553758,"48":-0.007457897849331241,"49":0.0014741695548825284,"50":0.023896264604369905,"51":0.03739856599591126,"52":-0.18024144786167814,"53":0.051122612091167745,"54":-0.016130601015963565,"55":-0.0505312986722941,"56":-0.028296826256053235,"57":0.004098867373955653,"58":-0.19713864714245116,"59":0.023253153163659633}},{"sx":1,"sy":1,"depth":60,"w":{"0":0.17080570073100426,"1":0.0058718441388076,"2":-0.009711306695824703,"3":-0.07305015752734417,"4":-0.14009444454912373,"5":0.028823416055848306,"6":0.010679938702061005,"7":-0.09156540253599375,"8":0.06945102662089278,"9":0.1932272198828365,"10":0.0018401088344676306,"11":-0.010708050778515494,"12":-0.16392677652383622,"13":-0.09167890433047723,"14":-0.1517084838530615,"15":0.029981226099443106,"16":-0.06303541362510263,"17":0.004784217532852146,"18":0.005504934362210036,"19":-0.009039251793734793,"20":-0.03387897986855198,"21":-0.0068837612329107605,"22":-0.04727939704442823,"23":-0.006171432520843669,"24":-0.024049673750988956,"25":0.012159761769234036,"26":-0.07841316909624978,"27":0.004606347881175021,"28":-0.07459844350168328,"29":-0.00037130472159586307,"30":-0.0897417578086789,"31":0.016226995815960647,"32":-0.004246090375936422,"33":-0.1147178776602946,"34":-0.029316388323060872,"35":-0.028146283914526414,"36":-0.03694773464606536,"37":-0.028552300684908445,"38":-0.01989972347616695,"39":-0.0452344893528726,"40":-0.05114546735626066,"41":-0.09557659275437586,"42":0.019493225854189625,"43":0.00006495860900255457,"44":-0.02430446019913642,"45":-0.11853532529331462,"46":-0.018527121205442382,"47":-0.032906223938896854,"48":-0.12674342097379643,"49":-0.0037135751701796228,"50":-0.0381857944659866,"51":-0.004705094797361858,"52":-0.10884544518020571,"53":-0.02184599560884323,"54":-0.15931064402440928,"55":-0.021677471283549795,"56":-0.026878677656140496,"57":-0.07783279102499083,"58":-0.2512065409588304,"59":0.001123046068034686}},{"sx":1,"sy":1,"depth":60,"w":{"0":-0.018621076059045432,"1":0.017220059326315283,"2":-0.00436616205246032,"3":-0.03167049315384224,"4":-0.03531843948809572,"5":-0.011657385289116548,"6":0.016024008639128274,"7":0.025778986766350064,"8":-0.0018779765902936078,"9":-0.0130112847173573,"10":0.011364763028680022,"11":-0.02091033666128123,"12":-0.050087928031612265,"13":-0.021226265145310234,"14":-0.03144853363844996,"15":-0.030225660526305285,"16":0.031352537482672097,"17":0.0009328229710967377,"18":-0.025596010821186704,"19":-0.01916945798230001,"20":-0.014333309613911159,"21":0.0011306932461493838,"22":-0.03550137188395553,"23":0.0021949674831743884,"24":-0.006364975244939553,"25":0.008489415312397327,"26":0.021334619263805008,"27":-0.016462269111986044,"28":0.008761333027734287,"29":0.010321808335649494,"30":-0.03990583823623854,"31":-0.025105713335431355,"32":0.014842312744189755,"33":-0.02971498563277972,"34":-0.018684073098080466,"35":-0.01871054821151452,"36":0.0029567987863927986,"37":0.034745029666524076,"38":0.02829443085596312,"39":0.011669443356306847,"40":-0.0110955254362374,"41":-0.053217735489814594,"42":0.018717590249107678,"43":0.006496990339254608,"44":-0.0034492422962087888,"45":-0.036618673519960614,"46":-0.023248253558820677,"47":-0.004256401093662107,"48":-0.025881576990756334,"49":0.004840618004874134,"50":0.004870447840974619,"51":-0.02222769133924416,"52":-0.04266628483039209,"53":0.009484519461163706,"54":0.0255324941120447,"55":-0.00884076237371593,"56":-0.019240775194443477,"57":-0.02237895978279236,"58":-0.04391687374805058,"59":-0.012030535437009982}},{"sx":1,"sy":1,"depth":60,"w":{"0":-0.05825685247871225,"1":0.02202595603446087,"2":-0.11147166861031386,"3":-0.09466839183425957,"4":-0.023403800362474952,"5":-0.07826489809051033,"6":-0.005625339637931287,"7":-0.10056758271159286,"8":-0.08909300561566143,"9":-0.04658181408595246,"10":-0.0409821572930945,"11":-0.0030517433235516325,"12":-0.010822215307721069,"13":-0.064439980592468,"14":-0.2103179578963867,"15":-0.038112037551111824,"16":-0.21962470987342236,"17":0.010043195572014251,"18":0.03510886069997093,"19":0.0037770072285527147,"20":0.020581727502867676,"21":0.04393107892329619,"22":-0.2252301884203575,"23":-0.020516970213968568,"24":-0.19972564510207336,"25":0.079511334923645,"26":-0.050676808673822765,"27":0.025174888855065802,"28":-0.011015639311513463,"29":-0.047181562237245435,"30":-0.04736046180771278,"31":0.06146223706587597,"32":0.032206181780530946,"33":-0.04265570675528113,"34":-0.0780577301083845,"35":0.002071866076006784,"36":-0.027072187039634155,"37":-0.04838208335464345,"38":-0.016831426611184294,"39":0.005905114979052002,"40":-0.11674125370370841,"41":-0.08556321505514829,"42":0.02031929522847734,"43":-0.03793112359170292,"44":-0.003525728946726007,"45":-0.003961743506399821,"46":0.006592234466860407,"47":0.013293588450949592,"48":-0.009387047500476836,"49":-0.021019941810664012,"50":0.021766819889541558,"51":-0.023656784074664036,"52":-0.32750334662451897,"53":0.03277439214086657,"54":-0.05914790061107061,"55":0.005349308017677111,"56":0.01088287310337761,"57":-0.02223413767507687,"58":-0.2242324812031049,"59":-0.0017725212211898024}},{"sx":1,"sy":1,"depth":60,"w":{"0":-0.04846274425091562,"1":0.007473292608043153,"2":-0.014258915958884377,"3":-0.07939852027273475,"4":-0.02538584752277985,"5":-0.07142700034872314,"6":-0.012958988463202429,"7":-0.023085248757186327,"8":-0.05720552977264176,"9":-0.08036306835846611,"10":-0.06562897706245456,"11":-0.017892186389766987,"12":-0.11359080193466796,"13":-0.02532472296204568,"14":-0.06521233439088205,"15":-0.029568274697211076,"16":0.021592573905575712,"17":-0.021166846128176608,"18":0.042707570051440935,"19":0.009079724602516624,"20":0.005282136348856072,"21":-0.1279157150099485,"22":-0.023498364111608338,"23":0.014136576619852813,"24":-0.0838246053910045,"25":-0.003983214894872545,"26":0.0806781915957259,"27":0.008504998223308309,"28":-0.042920110185206396,"29":0.01030132518220661,"30":0.061503424223407314,"31":-0.01655927152887067,"32":0.11970525833431833,"33":0.017898892470786628,"34":-0.05023767404469482,"35":0.026402614485193363,"36":-0.001396204323753129,"37":-0.025121348489420547,"38":0.03277502672437854,"39":-0.005878401174708222,"40":-0.03487091352374686,"41":0.03039428636611485,"42":0.030974725886435617,"43":0.04947673366532655,"44":0.010621873096133811,"45":-0.0974090050791546,"46":-0.08386696502642747,"47":-0.015895267860722914,"48":-0.047170871239797796,"49":-0.019711944276615864,"50":0.08452036734587287,"51":-0.012534886564779137,"52":-0.09484722292731763,"53":0.015141646695791502,"54":-0.002910519644473446,"55":0.014308135084173045,"56":0.05217665932983474,"57":-0.0099214232704089,"58":-0.060776243070991436,"59":-0.0005748344668850399}},{"sx":1,"sy":1,"depth":60,"w":{"0":-0.1988805760353141,"1":0.0007608359657002824,"2":-0.23157813962456467,"3":0.15996070621204597,"4":0.014612819518223734,"5":-0.06847501608005456,"6":0.02393910611065219,"7":-0.02356892928554871,"8":-0.02173323696531638,"9":-0.10672624219730022,"10":-0.11469901630056731,"11":0.020039955841626312,"12":-0.07727854735277719,"13":-0.013223658993216567,"14":-0.3381296959986163,"15":0.010513517953181591,"16":-0.07253295163055805,"17":0.02608601631715746,"18":0.010802606602347112,"19":-0.021615893542736367,"20":0.036340047594590565,"21":-0.10835949786784004,"22":-0.007451213643384974,"23":-0.00017461410526673564,"24":-0.2080364342135962,"25":0.043833783880042776,"26":-0.06585011693879057,"27":-0.10364355292407093,"28":0.007739479558080308,"29":0.0190216482771814,"30":-0.09842869683311554,"31":-0.022152556581058667,"32":0.009172844886793766,"33":-0.12245760522477676,"34":-0.1835626371531797,"35":0.00019378770013891132,"36":0.003367466337559437,"37":-0.03485259816172029,"38":-0.009960179827621188,"39":-0.021092968402232615,"40":-0.064004721981947,"41":0.01902454613961764,"42":-0.00890201264282465,"43":0.01877334696379079,"44":0.002862865599538864,"45":0.11336263438475541,"46":-0.04146930308080055,"47":-0.06858851749982668,"48":-0.08231356442858376,"49":0.05594346339391655,"50":-0.06136969466759199,"51":0.04860646448768788,"52":-0.2495658390305416,"53":0.014351849185524766,"54":-0.024342400502929292,"55":0.0037953547737741497,"56":-0.05970724201279014,"57":-0.08219994247486603,"58":-0.38796532353248353,"59":0.11180638424885314}},{"sx":1,"sy":1,"depth":60,"w":{"0":-0.02039623673391898,"1":0.024959431489163134,"2":-0.16872207243795254,"3":0.007046887159923274,"4":-0.01851833442462812,"5":-0.12648879129405724,"6":0.010566605490064978,"7":-0.003737842759495349,"8":0.212595505036734,"9":-0.0742049841345871,"10":-0.1900626737898883,"11":-0.02173755411021583,"12":0.059668162262717206,"13":-0.1168184757926556,"14":-0.5567935616432079,"15":-0.02075446370366659,"16":-0.05836530096150327,"17":-0.02066961394225528,"18":0.0017312123894267326,"19":-0.01347106496094546,"20":0.052284076396586845,"21":-0.16315322960530998,"22":0.0575161413890259,"23":0.00386543047083987,"24":-0.2103315971094861,"25":-0.02150948730204631,"26":-0.06896591309911322,"27":-0.08968920513177436,"28":-0.00226273552928112,"29":0.004251626220807037,"30":0.025534284354148996,"31":0.01627863636309168,"32":-0.01350969461335051,"33":-0.13718481412466882,"34":-0.15459856089921853,"35":0.010887834695797245,"36":-0.035513963875124906,"37":0.018665721930227183,"38":0.11330760728578673,"39":-0.034011292990450234,"40":0.05368608556618241,"41":0.045132383594621975,"42":0.06586168242796756,"43":0.012847487140241715,"44":-0.010792233033538703,"45":0.02344842392203524,"46":-0.08052724680434636,"47":-0.10365036128226333,"48":-0.2168248691618229,"49":0.025630619615645608,"50":-0.06637461037931609,"51":-0.03317014422678892,"52":-0.5755878463743371,"53":-0.03270364698642441,"54":-0.08544721896826447,"55":-0.026155703226844948,"56":-0.10760463564212261,"57":-0.08717924481869302,"58":-0.32928549034427496,"59":-0.19843503837646015}},{"sx":1,"sy":1,"depth":60,"w":{"0":-0.025849628876069463,"1":0.001642650988025122,"2":0.05222472665357563,"3":-0.051798468291771836,"4":-0.05659656318962221,"5":-0.03983533227223276,"6":0.016081121457126438,"7":-0.025789872698857148,"8":-0.05749501817659339,"9":-0.048725670056656706,"10":-0.020516861151009178,"11":-0.003128226580669166,"12":-0.13339031845833893,"13":0.14520736848704094,"14":-0.13651353664663163,"15":0.0708074677286611,"16":0.028307561170035776,"17":0.0232952680873706,"18":-0.009397828539702913,"19":0.021268446010956482,"20":-0.008617915302243354,"21":0.02456926737030075,"22":-0.08491653204847535,"23":-0.017610986364389472,"24":-0.08620372341545408,"25":0.036061199189567975,"26":0.05373118849826404,"27":-0.04247394326729664,"28":0.02663974554354238,"29":-0.02235462549855435,"30":-0.038630341359519066,"31":0.03153002732325347,"32":-0.00037035885359661873,"33":-0.003317893308723794,"34":-0.023907475081617398,"35":0.007286397239306455,"36":0.005973081742650182,"37":-0.01644290626639694,"38":0.026358123708421912,"39":0.016659696150383794,"40":-0.05138708498847194,"41":-0.07815956102145388,"42":0.005896404153900343,"43":-0.03166074595441582,"44":0.004908358795407583,"45":-0.020489751369204726,"46":-0.018314587863541544,"47":-0.045793434272869055,"48":0.002607968384303052,"49":0.01730437760512894,"50":0.06032608015020738,"51":0.0225368165559621,"52":-0.11538220207460963,"53":0.04612397453393458,"54":0.010819834272894001,"55":-0.003185505730451514,"56":0.00363070343207756,"57":-0.042490849528348786,"58":-0.07609221144138077,"59":-0.018532244153365053}},{"sx":1,"sy":1,"depth":60,"w":{"0":0.030848739649075328,"1":0.021873335632213258,"2":-0.06564984517888339,"3":-0.10116773141557175,"4":-0.07411759336884065,"5":0.03768163846334566,"6":-0.02109127473403932,"7":-0.03497283730173991,"8":-0.07747437375857186,"9":-0.21878801829130654,"10":-0.0264018631883393,"11":0.037485523684200626,"12":-0.024984031113520235,"13":-0.06545677898966559,"14":-0.320561712166168,"15":-0.015110794604746972,"16":-0.02102118750414261,"17":0.036808661113751376,"18":0.0008818267708152883,"19":0.004092410619119554,"20":0.10001284186207955,"21":-0.0568192635881256,"22":-0.0280128545920283,"23":-0.007586989235829398,"24":-0.14113416817469818,"25":-0.019372830264114176,"26":-0.0033459017619264443,"27":-0.13408789730909426,"28":0.0025056781736939935,"29":-0.01374294457319109,"30":-0.07526889283279324,"31":0.025006015520651636,"32":-0.013146732540249846,"33":-0.018780716372051778,"34":-0.031723925094609126,"35":-0.04134511733194068,"36":0.018965064960732615,"37":-0.022153341474223025,"38":0.02977056803470841,"39":-0.008655743920110839,"40":-0.2164969293679233,"41":0.03960314540098675,"42":0.023805600229477374,"43":-0.011832905018100635,"44":-0.038403711780434266,"45":-0.04673164834251101,"46":-0.02754076974138974,"47":0.02255602799517553,"48":-0.010602248987661121,"49":0.019299459218523943,"50":-0.021716987325084768,"51":-0.006417705130272832,"52":-0.319727784581867,"53":-0.03494200290015141,"54":-0.06215108059953091,"55":0.031008931286722392,"56":-0.020739138776401916,"57":-0.22878965941709375,"58":-0.31705326560999786,"59":-0.04022404769310757}},{"sx":1,"sy":1,"depth":60,"w":{"0":0.14116181071823863,"1":-0.012960017119121012,"2":0.07514138141239236,"3":-0.14241231075874572,"4":-0.08496248079447816,"5":-0.022592689360268578,"6":0.018363036993747955,"7":0.04789526270622477,"8":-0.10206971777483619,"9":-0.1598823581120968,"10":-0.02994689666308084,"11":0.019606957733122755,"12":-0.16880179011447577,"13":-0.060926647565897656,"14":-0.2274417835016685,"15":-0.00011370228798096842,"16":-0.012101171327229812,"17":0.006608653521862476,"18":-0.013154401735401918,"19":-0.018230257616678573,"20":-0.020354720179421863,"21":-0.022126881988960158,"22":-0.03653594145438833,"23":-0.015243448871392172,"24":-0.0669004243322863,"25":-0.02728959322998657,"26":-0.01974622689037038,"27":0.145879424784732,"28":0.018472928175540054,"29":0.00018363796606163886,"30":-0.07117006048926679,"31":-0.02071767801649115,"32":0.019263371802127723,"33":-0.1009382155215638,"34":-0.14416778734546074,"35":-0.028944279780265928,"36":0.015524724840963792,"37":-0.00743346599784515,"38":0.015401766148776405,"39":0.006606634586730084,"40":-0.1017117805067551,"41":-0.02006959029563907,"42":-0.02051407072854434,"43":-0.03757820375452002,"44":-0.004668840961117741,"45":-0.006393306492803614,"46":-0.024193324558466834,"47":-0.04225975970259963,"48":-0.05827875657144273,"49":-0.04040421175207813,"50":-0.005889215777474341,"51":-0.14587077966207426,"52":-0.2627551007404284,"53":-0.01607159097097504,"54":-0.1204599236023544,"55":0.04258787710924825,"56":0.02343762166323318,"57":0.03308288132629148,"58":-0.2019817278289756,"59":-0.06729157616989655}},{"sx":1,"sy":1,"depth":60,"w":{"0":-0.09280757925298187,"1":-0.02975387238439476,"2":-0.018433872924174657,"3":-0.14312649495093757,"4":-0.0776053322656555,"5":-0.21939052792238342,"6":0.006144401436807805,"7":0.012725617781888255,"8":-0.05635256000677149,"9":-0.09356722432965257,"10":0.26770324793827205,"11":-0.017870876773779854,"12":-0.0659377775320929,"13":-0.08595516361858854,"14":-0.1497556873786542,"15":-0.0011139629106365783,"16":0.022154525648401063,"17":0.003937536014734123,"18":0.01346927417863152,"19":0.005939043581730102,"20":-0.021047056470998603,"21":-0.01111524989676858,"22":-0.10184812917030599,"23":-0.00023739056658177846,"24":-0.21215153670738426,"25":0.02257702407310622,"26":-0.03901206738765771,"27":0.06262511564551897,"28":-0.04937904600811871,"29":-0.004285971907425111,"30":-0.05114851822638952,"31":0.03360190035004649,"32":-0.01927562959653139,"33":-0.035583778880292315,"34":-0.042053838628371074,"35":-0.01080866613471449,"36":0.007903553653682685,"37":-0.0038225394271415585,"38":-0.017794635560851417,"39":-0.0010408468321491601,"40":-0.08729925662019132,"41":-0.1876037509124843,"42":-0.04015784692608221,"43":-0.034378973875828424,"44":0.004722220791152447,"45":-0.060917280861844156,"46":-0.029965322948145242,"47":-0.02739231176232787,"48":-0.03378513204882259,"49":0.0028615108595649017,"50":-0.03319684086326346,"51":-0.02747106692914519,"52":-0.3654944114988001,"53":0.052504485305174174,"54":-0.028683671580611306,"55":-0.035511068485999525,"56":0.10911681071717146,"57":0.07949470897442266,"58":-0.4268769785092414,"59":0.16985403263023147}},{"sx":1,"sy":1,"depth":60,"w":{"0":-0.06693053638987112,"1":-0.005545667507834537,"2":-0.005910779146772087,"3":-0.059770305641620586,"4":-0.044090575348004535,"5":-0.03414561604612158,"6":0.057690389217967576,"7":-0.017010650709610036,"8":-0.028788206095612157,"9":-0.005136220175560141,"10":-0.03188989739140926,"11":-0.008987674770518005,"12":-0.02402773151204899,"13":-0.03425908463121134,"14":-0.05330646722812097,"15":0.04375846959254199,"16":-0.008274115480497425,"17":-0.0018266203507971673,"18":-0.015927553868379053,"19":-0.020143147130623273,"20":-0.02422567699907708,"21":-0.01491243776510354,"22":-0.012962181287509696,"23":0.013333628274500834,"24":-0.05355637074858554,"25":0.034873702140070025,"26":0.02855053929046755,"27":0.1145174385144422,"28":0.034767612528042724,"29":0.01114741357757987,"30":-0.05384013312441478,"31":-0.021682418491311226,"32":-0.018276251122257597,"33":-0.00571614961150315,"34":-0.07906646456042403,"35":0.003583717941615746,"36":-0.018116935404328464,"37":0.04939440069797283,"38":-0.01548819457683655,"39":0.02773617031396051,"40":-0.03582943603595065,"41":-0.033483823412910105,"42":-0.024710378521912667,"43":0.017976302776619057,"44":0.006525478584361977,"45":-0.02072757557508952,"46":-0.03643106017785257,"47":0.0027815821398961575,"48":-0.045251228240892984,"49":-0.028863030267842534,"50":0.011578548511545411,"51":-0.0340014043471827,"52":-0.09152262759368505,"53":0.004811845406726324,"54":0.0020809358404471983,"55":-0.04107499210905618,"56":-0.004246386137464095,"57":0.0033574362691138056,"58":-0.09905990874421565,"59":-0.011475574782761233}},{"sx":1,"sy":1,"depth":60,"w":{"0":-0.06604368655892363,"1":-0.03562580579638067,"2":-0.031160091022838995,"3":-0.010889709731175236,"4":-0.07245772412559974,"5":-0.017787973851244514,"6":-0.005698212552210767,"7":-0.06282497713813796,"8":-0.0345164699243659,"9":-0.03163821933733369,"10":-0.026008328595492042,"11":0.008895277400884923,"12":-0.04583027885282682,"13":0.03686596345416349,"14":-0.2599262099419503,"15":0.010001262873699521,"16":0.1231996141875224,"17":0.02117861462548816,"18":0.021747873523394714,"19":-0.03082211163845202,"20":0.018855480451220284,"21":-0.11983242182733862,"22":-0.12094762669984459,"23":-0.002165663570052541,"24":-0.14210491608019651,"25":-0.05742444039752189,"26":-0.009816781017373532,"27":-0.02545847607320414,"28":-0.051218492025069444,"29":-0.0066120379185506,"30":0.010893337907345962,"31":-0.01776661596852302,"32":-0.032503554406314306,"33":0.010486428955119252,"34":-0.07949233078570467,"35":0.03495828681256897,"36":-0.01891725584262004,"37":0.012574539041201864,"38":0.04475264201355846,"39":-0.03683134021301213,"40":-0.005648350560752471,"41":-0.037824839284906694,"42":0.04236798189292538,"43":0.023247281196223386,"44":0.0036147976662018974,"45":0.03910237385379831,"46":0.012895325338369597,"47":-0.019928292119041423,"48":-0.0381019116076975,"49":-0.008258252198762398,"50":-0.08013609181670979,"51":0.03407158151903209,"52":-0.21455269258151602,"53":0.013191045734826178,"54":0.01758441764907333,"55":0.011367472927251274,"56":-0.014375526196617246,"57":-0.03612024298667329,"58":-0.23629993654868908,"59":-0.04160810638821494}},{"sx":1,"sy":1,"depth":60,"w":{"0":-0.12188166318408107,"1":0.01860229899361965,"2":-0.03732408225987094,"3":-0.1734236107618211,"4":0.12315371259746725,"5":-0.1414292869134451,"6":0.013483163074302307,"7":0.3111542133330197,"8":-0.1364042334905592,"9":-0.10173354461122307,"10":0.05158979494801493,"11":-0.00016427131875769611,"12":-0.28854299667593825,"13":-0.012597351287252825,"14":-0.2596959219269462,"15":-0.03146587631919773,"16":-0.03409672727878045,"17":0.008842150968954503,"18":-0.01452074338470586,"19":-0.007841144222152045,"20":-0.023488777542366186,"21":-0.08354255408816486,"22":-0.11885842796440886,"23":0.020488951837200987,"24":-0.2434083227231078,"25":-0.037965186596693956,"26":-0.06568911846433423,"27":0.09636124893785848,"28":-0.005919264478668099,"29":-0.012262347976646418,"30":-0.05717928476820298,"31":0.004944952451793574,"32":-0.006766844569962723,"33":-0.04850754401499147,"34":-0.11687356778414168,"35":0.007857833078318829,"36":-0.015974428677695336,"37":-0.0034926612403187356,"38":-0.014902724970476398,"39":0.029007467053104374,"40":-0.09000612714868061,"41":-0.09413120799497414,"42":-0.015271406395619901,"43":-0.020676042915942182,"44":-0.023783076903599716,"45":-0.044003684913390934,"46":-0.038017181660735845,"47":-0.04648148266852809,"48":-0.24380496968732052,"49":-0.021562727088624768,"50":-0.043154417982968214,"51":-0.02183242476833304,"52":-0.1405572892342637,"53":-0.006639050384543142,"54":-0.04272244150375399,"55":0.026124340032639703,"56":-0.029556348811474495,"57":-0.019554760217731223,"58":-0.41337063598679974,"59":-0.12297011639787532}},{"sx":1,"sy":1,"depth":60,"w":{"0":-0.07677263715096173,"1":0.015309514754624443,"2":-0.04217451189272383,"3":0.005431403552341328,"4":0.023411745163667085,"5":-0.09117748390996945,"6":-0.0367646739759778,"7":-0.05923601045922994,"8":-0.03221372022857085,"9":-0.025008872713816833,"10":-0.07043510339243712,"11":-0.008525539202589484,"12":-0.06348899415111318,"13":-0.0033104239828396437,"14":-0.19626659335380608,"15":0.023616819492436908,"16":0.027112170402374403,"17":0.03654053160501583,"18":-0.06140199255837725,"19":-0.017536104063215843,"20":-0.049990801019454766,"21":-0.1117950401590606,"22":-0.1279549020522824,"23":-0.015251720552522186,"24":-0.18611460086332074,"25":-0.020047937525798837,"26":-0.03629683454093197,"27":-0.03226053084661004,"28":-0.020260888749626536,"29":-0.0044100535326996315,"30":-0.06391684087283402,"31":0.028611168976453143,"32":-0.019836939024442706,"33":0.09493277348311721,"34":-0.08523068136861846,"35":-0.020297309309076927,"36":0.01277254545960403,"37":-0.022602165742315584,"38":-0.022043269878708242,"39":-0.00330482767217759,"40":0.0037390940013408195,"41":-0.013237182472847022,"42":-0.027390836616446295,"43":0.03476546548338855,"44":0.018852622368568297,"45":-0.10621383454779745,"46":0.0013843533770612532,"47":0.029414410099752184,"48":-0.023805232487549684,"49":-0.04072995036987925,"50":0.026513591382519866,"51":-0.000836802908976236,"52":-0.27270179194330313,"53":0.00986360776694672,"54":0.08826449591357967,"55":0.021268911153897927,"56":0.012193325403131353,"57":-0.02899627074129617,"58":-0.1003984555639139,"59":-0.146561017598085}},{"sx":1,"sy":1,"depth":60,"w":{"0":-0.04438743239866248,"1":0.001978792195869615,"2":-0.014028022831501797,"3":-0.024014490285340327,"4":-0.058938796964740935,"5":-0.011573170340551423,"6":0.003564373507604814,"7":-0.04418256034411075,"8":-0.04270735672467505,"9":-0.03877285597365951,"10":-0.005525381768111426,"11":-0.0006763203199501385,"12":-0.006607656838062122,"13":0.022778015673929564,"14":-0.0060512544201470845,"15":0.052704044025835776,"16":-0.014980085324642746,"17":0.043144761937785436,"18":-0.02718668304258839,"19":0.007354816996566285,"20":0.0018058452936392565,"21":0.004132671443451831,"22":-0.03542626064950982,"23":-0.0033153662303172017,"24":-0.006871577174973097,"25":0.052884458663250804,"26":-0.018509933624677295,"27":-0.03816481054373348,"28":0.021726688756859593,"29":0.009370596533253384,"30":-0.0659100913673794,"31":0.0220177691379367,"32":0.008907891728224964,"33":-0.009331030278041174,"34":-0.08301890952891586,"35":0.0037589964290322708,"36":0.012687053010282801,"37":-0.012018570331945068,"38":-0.00846249089862853,"39":-0.020908489043148695,"40":-0.028261878577198793,"41":-0.054264154068727234,"42":-0.007503646742685395,"43":-0.008135335651232017,"44":-0.011325548890776258,"45":-0.05722822912426155,"46":0.016130447496122344,"47":0.00342671658110589,"48":-0.03445488047833088,"49":-0.004528080440519715,"50":-0.03243487552041809,"51":-0.000608306598480917,"52":-0.04555695333542562,"53":-0.02306733120031953,"54":-0.02255929115561413,"55":-0.023417131728926715,"56":-0.03565051597891457,"57":0.013269907066068787,"58":-0.00974252527768951,"59":-0.007800882565724414}},{"sx":1,"sy":1,"depth":60,"w":{"0":-0.21166930755211352,"1":0.03299995371038164,"2":0.002080353198514177,"3":-0.17203667019696978,"4":0.16887359425695433,"5":-0.026247081693233917,"6":0.011969778100788128,"7":0.24114692446096866,"8":-0.03613386454037569,"9":-0.09445287261736897,"10":0.0066844933217081485,"11":0.017410120064902033,"12":0.14744912457346285,"13":-0.008488307038203984,"14":-0.29549021981355367,"15":0.011644632796427206,"16":-0.07169562773866445,"17":-0.0244109023271996,"18":-0.004846263501575173,"19":0.023287455382189907,"20":-0.019287276362230186,"21":0.13440945241948649,"22":0.17843654259547867,"23":0.019783086829080677,"24":-0.04405269545477361,"25":-0.0018757235754319388,"26":0.29362073844062914,"27":-0.01940649148950459,"28":-0.02046148425461814,"29":-0.017109230584731783,"30":-0.018809584081553397,"31":-0.02277065660732018,"32":0.023544336871350272,"33":-0.09182433469125659,"34":-0.00019659273346463656,"35":-0.01454010045169883,"36":0.036551013964568606,"37":0.010773782600192836,"38":0.008657287869179209,"39":-0.034206625621793545,"40":-0.23482749621018548,"41":-0.036297576237079104,"42":-0.010201413156338771,"43":-0.015229843969069888,"44":0.0035748062571720005,"45":-0.039800703725163304,"46":-0.0028411963348263704,"47":-0.027446905669625613,"48":0.14921746884089196,"49":-0.020202509915820805,"50":-0.01694708444710635,"51":-0.03090137710718924,"52":-0.24057396111599194,"53":-0.0006415216826175307,"54":0.08222293694287504,"55":0.008233913737202983,"56":-0.06566881433014918,"57":-0.022193776303612807,"58":-0.3908619963642611,"59":-0.05728570984914626}},{"sx":1,"sy":1,"depth":60,"w":{"0":-0.05197477096320049,"1":0.0029592295174312973,"2":-0.026650336821550276,"3":-0.038263741780147395,"4":-0.02156910531639206,"5":-0.0004930543774682947,"6":-0.008776893987588725,"7":0.02889765475299988,"8":-0.02040445090058801,"9":-0.09285160417056713,"10":0.02781758893097535,"11":-0.0005351827032375846,"12":-0.13347383313694322,"13":0.04404581941766583,"14":-0.133197167932098,"15":-0.013107874772728716,"16":0.019537040426479028,"17":0.002381382141698805,"18":0.025685936429201618,"19":-0.003913482917192601,"20":0.007534106282766677,"21":0.04410369336352832,"22":-0.18095545971016994,"23":0.003307163435562208,"24":-0.07924750783756283,"25":0.00794086058891669,"26":0.10355865903267798,"27":-0.05827002547247865,"28":0.04414448764012973,"29":0.0032788101955522533,"30":0.018746339847387446,"31":0.014552635653017336,"32":-0.036411869690112585,"33":-0.07567078254140605,"34":-0.06672132729752787,"35":0.07458811023879638,"36":0.004657365725023988,"37":-0.02297414368357489,"38":0.05126899781306474,"39":-0.02371598846329165,"40":-0.1314235986508526,"41":-0.18448916398591378,"42":0.04690947774600003,"43":-0.033253097005886974,"44":0.013044430650247614,"45":-0.08227322056180697,"46":0.02509376485617393,"47":0.0066820398269370074,"48":-0.03247481638250815,"49":0.03453238978222984,"50":-0.008406356811643742,"51":-0.04023465199108695,"52":-0.2768697342995199,"53":0.058015101470445016,"54":-0.023581414408851652,"55":-0.01611677896852136,"56":-0.027953257384331014,"57":0.06334443323614104,"58":-0.23022598786118637,"59":-0.018377910823869838}},{"sx":1,"sy":1,"depth":60,"w":{"0":0.049740376280544285,"1":0.03293633615665572,"2":-0.06706529124307523,"3":-0.1451025888154699,"4":-0.06215279862267822,"5":-0.020802240824977773,"6":0.005678964805996895,"7":-0.02132364671094095,"8":0.12592749179721524,"9":-0.20843119153065848,"10":-0.075671000405557,"11":-0.0031491427948669055,"12":-0.05089615028709895,"13":-0.07544263059001984,"14":-0.30630702350329286,"15":-0.014293996431726498,"16":0.05828750330489518,"17":-0.0027516707023905254,"18":-0.008075142024389012,"19":0.01612368470504673,"20":0.02391537969384678,"21":-0.07238689483660272,"22":-0.01586467853897636,"23":-0.010146160877674839,"24":-0.15446703888613897,"25":-0.03962024047039047,"26":0.001045181900282378,"27":-0.08631896578980082,"28":0.055222882131541445,"29":0.03539976313834886,"30":-0.028543163440379455,"31":0.01705924730998199,"32":-0.014930615734761923,"33":0.03702318347190969,"34":-0.044734353721280165,"35":-0.03216733508844858,"36":-0.007362752115632067,"37":0.001168499561989584,"38":0.020750187200110983,"39":-0.0037495662958272596,"40":-0.13409383867290287,"41":-0.08475287859131489,"42":-0.040083462021287604,"43":-0.029777164134206505,"44":0.03265848414247966,"45":-0.09521816908606504,"46":0.036654359793811625,"47":-0.038608493281608126,"48":-0.011517040135577796,"49":-0.00800814283824273,"50":0.08299624344936331,"51":-0.01373177513498874,"52":-0.2657341937646355,"53":-0.020718814604750967,"54":-0.04036065244483645,"55":-0.016792291010241274,"56":-0.12088523004616405,"57":-0.14392227191706394,"58":-0.19218004093724184,"59":-0.18467043689100232}},{"sx":1,"sy":1,"depth":60,"w":{"0":-0.04825092619915247,"1":0.00920049263730679,"2":-0.14548187053066844,"3":-0.10978466846312018,"4":-0.00468047636578227,"5":0.01508444573138593,"6":-0.022183442266029606,"7":0.008906779167340395,"8":-0.05647223543862395,"9":-0.10383401574079376,"10":-0.0325711424893026,"11":-0.012194910557581312,"12":-0.03798762257563203,"13":-0.05416849848471742,"14":-0.21957180937366075,"15":0.004104393909474057,"16":-0.002232437063958519,"17":0.01914794399315519,"18":0.0021779330291092367,"19":-0.02205567169694294,"20":-0.008081670637611825,"21":0.013188732300908062,"22":0.06389690913944379,"23":0.010090883021782689,"24":-0.14475024659190922,"25":-0.018533114695035265,"26":-0.01693594699036449,"27":0.017169301492981254,"28":0.02822744390466291,"29":0.006657005758929848,"30":-0.0017146478255586153,"31":-0.0009076025285523464,"32":0.10443197038485494,"33":-0.052649873348458935,"34":-0.16141706177256918,"35":0.020437045854615768,"36":-0.03288584598744221,"37":0.017815316003391098,"38":0.10024877926741234,"39":-0.02541486741143016,"40":-0.0020975994852265264,"41":0.03323657810668883,"42":0.05465518802224959,"43":-0.033703116832510066,"44":0.012715165276188422,"45":-0.0875807585481647,"46":-0.008628726033569019,"47":-0.038432309756690736,"48":-0.015152949450698183,"49":0.01698493196538959,"50":-0.013845097741279226,"51":-0.08331342258276514,"52":-0.13267175820471883,"53":0.045992015229095115,"54":-0.0036084806977149113,"55":-0.02363886353986813,"56":0.0755291337393277,"57":-0.005181470062806327,"58":-0.14254529759986836,"59":-0.014321599330432299}},{"sx":1,"sy":1,"depth":60,"w":{"0":-0.20424091605249486,"1":-0.02099816185476927,"2":-0.026404103793268442,"3":0.12241630137644971,"4":0.020533321423777878,"5":0.2735935879531565,"6":-0.031237452257396926,"7":-0.03106566099263339,"8":-0.019869621908990453,"9":0.17037996009495293,"10":0.05234386840099871,"11":0.04075995005120236,"12":-0.26514602039398383,"13":0.0035718177556539684,"14":-0.7973972406187474,"15":-0.01017686007592713,"16":-0.036611114948512144,"17":0.04625043546010902,"18":-0.02182084314878175,"19":-0.015444251126911727,"20":-0.08005674491136763,"21":-0.023415585415376732,"22":-0.03329622500354234,"23":0.02118140319769386,"24":-0.26577294319518124,"25":-0.0041621143468684365,"26":-0.01973715906226596,"27":0.29322873119370035,"28":-0.03628471841431982,"29":0.05491194625271246,"30":-0.049966325799918214,"31":-0.022186978286993994,"32":-0.004963646390552271,"33":0.12404334940125263,"34":-0.15272343080962658,"35":-0.005323112905445021,"36":0.0011706662043231158,"37":-0.008951707869523862,"38":0.028701302138469727,"39":-0.028985897250464212,"40":0.27266649418310734,"41":-0.2526562957005835,"42":0.014695921367060683,"43":-0.05935021997827458,"44":0.004498523244258344,"45":0.07312047659209643,"46":-0.033931684437461,"47":-0.06994146957448408,"48":0.354276116221538,"49":-0.005733233405713247,"50":-0.027547187592476933,"51":-0.06581109336140045,"52":-0.8096667011527008,"53":0.00845255405084613,"54":0.22643971360431267,"55":0.02322262389028575,"56":0.008606497895999007,"57":-0.0019099373956875383,"58":-0.762450577678584,"59":-0.13887869372128836}},{"sx":1,"sy":1,"depth":60,"w":{"0":-0.02743554066272285,"1":0.017430365774084116,"2":-0.01008411392643013,"3":-0.01453113243519039,"4":-0.016720921311621218,"5":-0.034638214865186666,"6":0.00508529349930267,"7":-0.009929368058401389,"8":-0.0984384199275031,"9":-0.014733693195771001,"10":-0.0025968894853505564,"11":0.011618322878994173,"12":-0.044734411015786985,"13":-0.0359591473849837,"14":-0.06715337088531427,"15":0.11460437102549574,"16":-0.055373685258106375,"17":-0.0028139792404236227,"18":0.014830798121854725,"19":-0.01912180971513209,"20":-0.04378436081284423,"21":-0.09655740872468843,"22":-0.07760616717534007,"23":0.024231143622347545,"24":-0.11810323618339623,"25":-0.01130938296694243,"26":-0.041124034926799995,"27":-0.019036613357623463,"28":0.030035865299234753,"29":-0.002712207111017251,"30":-0.1403118822966127,"31":-0.010212652479956749,"32":0.08637400428977389,"33":-0.05905342167627197,"34":-0.04775015068461922,"35":-0.0002640794539870119,"36":-0.02008540665653998,"37":0.10899563876137244,"38":-0.013621622966888928,"39":-0.033891562379344715,"40":-0.001198887826590819,"41":-0.05523251858170609,"42":0.025241169467243398,"43":0.03397520796531075,"44":0.10750944034348432,"45":-0.010177968967453979,"46":0.01895635819498792,"47":0.021182269123191037,"48":-0.008393675373908659,"49":-0.021514961322927056,"50":-0.02341069251342832,"51":-0.02865132644370314,"52":-0.1744324811167961,"53":-0.03646833136003538,"54":-0.00026491975814873115,"55":0.014852528722847107,"56":-0.011140871266792475,"57":0.025357856003582258,"58":-0.05705890757280404,"59":-0.02938900883287193}},{"sx":1,"sy":1,"depth":60,"w":{"0":-0.05744417252343252,"1":-0.014548553036093285,"2":0.000810460283473603,"3":-0.017887132018656007,"4":-0.09189122750499519,"5":0.026941343790913855,"6":0.022990566262991036,"7":0.03229936163144915,"8":-0.01241744033819471,"9":-0.055042319871390355,"10":0.0007833911157755257,"11":-0.007178293048535599,"12":-0.15030392314205593,"13":-0.016640622306340808,"14":-0.15601816897313248,"15":-0.04535875062472362,"16":-0.09004065067644873,"17":0.002665994593924722,"18":-0.00652788080153041,"19":0.010530839162739803,"20":-0.043251976113683435,"21":0.07817967078496915,"22":-0.062333831884635614,"23":-0.011696995872861524,"24":-0.06605437017992669,"25":0.01802500789971994,"26":-0.04186336550712807,"27":0.0028680249744461963,"28":0.017681451737749248,"29":-0.007861134269395517,"30":0.005824539012841975,"31":-0.011750658847780203,"32":-0.0015040698192551243,"33":0.00866249374522517,"34":-0.012273319402479266,"35":-0.017124198045758265,"36":-0.007901726376266979,"37":0.0014628486064520907,"38":-0.0353589783342089,"39":-0.00352319743368175,"40":-0.07138952727594639,"41":-0.0037185146498354155,"42":-0.01850606123628142,"43":-0.011987338143743871,"44":-0.011679848852081792,"45":-0.032903289140682065,"46":0.04071095415766058,"47":0.037927005819499315,"48":-0.045709637387279414,"49":0.03106783952886174,"50":-0.04671802866937731,"51":-0.02754269751352075,"52":-0.07789643795205305,"53":0.04201902873136646,"54":-0.003662984963968345,"55":-0.00725588144921045,"56":-0.004088606301653454,"57":0.007070961022529867,"58":-0.06930401291772216,"59":-0.06763889674656695}},{"sx":1,"sy":1,"depth":60,"w":{"0":-0.1435069356592218,"1":0.00995656349848806,"2":-0.15916586080888034,"3":-0.11513231330819398,"4":-0.06583110862709933,"5":-0.017272445730542412,"6":-0.010207023839510682,"7":-0.04047479541688912,"8":-0.13451399769074324,"9":-0.20629007433548338,"10":-0.011503733493730538,"11":-0.009375333930529132,"12":-0.1270872784275609,"13":-0.007523515638566546,"14":-0.36442770198531893,"15":0.002908093445357395,"16":-0.027173240535989036,"17":0.022201009777657234,"18":0.03840048690534991,"19":0.012692763131823652,"20":-0.05738320332369581,"21":0.0986713958925621,"22":0.06551266741274132,"23":-0.01752263160737848,"24":-0.25144613235443564,"25":-0.018020317559569995,"26":-0.07561096666036958,"27":-0.03635297654953982,"28":0.011850014309722802,"29":0.014890831914894685,"30":-0.11708800619547283,"31":-0.016086289056167626,"32":0.026921788163362416,"33":-0.04711167829682394,"34":-0.19311630634933633,"35":0.019958156413693334,"36":0.018405763994768103,"37":-0.022435337164225674,"38":-0.03332583260506025,"39":0.019530108913707198,"40":-0.07707109220713863,"41":-0.2446628976056801,"42":0.006520437731500868,"43":0.018017820083024955,"44":0.043801532057442055,"45":0.005704423902926305,"46":0.03196095125981603,"47":-0.012779809414738136,"48":-0.027516500072889617,"49":-0.010089541497605967,"50":-0.0341618288997096,"51":-0.10584634859930274,"52":-0.4352527109638716,"53":-0.0007736450060259321,"54":0.06034711844209552,"55":0.03440723527509792,"56":-0.016221080260786926,"57":-0.005083092050022489,"58":-0.4134556403721453,"59":-0.10567322664539297}},{"sx":1,"sy":1,"depth":60,"w":{"0":-0.037503652098839865,"1":-0.002225250028814261,"2":0.05153746604366637,"3":-0.009813383034019374,"4":-0.05393183217040948,"5":-0.013516391521827733,"6":-0.02755955645226313,"7":-0.03816794896373729,"8":-0.06446619340627403,"9":-0.05196298276404715,"10":0.0175852156987557,"11":0.011695201075927943,"12":-0.05297969217597641,"13":0.019922229691253145,"14":-0.09780769583559679,"15":-0.03162411644494216,"16":-0.024638813810127305,"17":-0.04746841594506765,"18":0.01941080197106242,"19":0.022160828280628833,"20":-0.032826506195203796,"21":-0.04786016379811245,"22":-0.05938688758203999,"23":-0.011515813510270992,"24":-0.06847154787605123,"25":-0.01184342954209103,"26":-0.010605283206534194,"27":-0.019878663851350654,"28":0.007859598905188298,"29":-0.00259870930151074,"30":-0.09506631572995648,"31":-0.007524885307422472,"32":-0.020782235697832448,"33":-0.003097579606019342,"34":-0.016401896901984462,"35":0.052827663666587935,"36":-0.01940679314875269,"37":-0.04935314964221905,"38":-0.006520986100483016,"39":0.02469808359344528,"40":-0.0035362263021808966,"41":-0.042356852138336225,"42":-0.006083957634587821,"43":0.0010333793966410595,"44":-0.02201277194911469,"45":-0.023423704814058432,"46":-0.006931104149325092,"47":-0.019781715201610053,"48":-0.057584396673908855,"49":0.019275329552474078,"50":-0.014519255065019587,"51":-0.020876265590254017,"52":-0.11179701747543745,"53":0.025624778674333475,"54":-0.03275526187133222,"55":0.03887275832026478,"56":0.026869569391008537,"57":0.00856479382375618,"58":-0.06038299301496218,"59":0.012267178638267005}},{"sx":1,"sy":1,"depth":60,"w":{"0":-0.02060599285167794,"1":0.01380766227944707,"2":-0.018976881072805128,"3":-0.05847111182266552,"4":0.022701196934206396,"5":-0.03712493841893309,"6":-0.011531532499427209,"7":-0.021364045710096077,"8":-0.006782013255348898,"9":-0.0421295153730214,"10":-0.02344449343932124,"11":0.0029910679451740294,"12":-0.030223572673646112,"13":-0.013680726671651888,"14":-0.06106246638350897,"15":-0.015622695946746942,"16":-0.028065850406573504,"17":-0.006377315246357919,"18":-0.00003286813785930653,"19":0.004173513254213883,"20":-0.017124175931187965,"21":0.07353590232257884,"22":-0.012108074082027912,"23":-0.02720024609492032,"24":-0.08612038211569936,"25":-0.00347086079924151,"26":-0.036729781228332044,"27":-0.036039638329162016,"28":0.00041322724942052715,"29":-0.0024725741816753978,"30":-0.021678046740005914,"31":0.002315674588384098,"32":-0.0020569532723664443,"33":0.030202031621959863,"34":-0.06500079939305523,"35":-0.03207332735511458,"36":-0.014193420284217391,"37":-0.035395779619199826,"38":0.018093526759395327,"39":-0.003647819347774124,"40":-0.05003158274051396,"41":-0.03597380995405883,"42":-0.0382068405834444,"43":0.02032269903215351,"44":-0.03389001642821027,"45":-0.027224102354937232,"46":-0.029825489006342704,"47":-0.005530135827682147,"48":-0.04780091582275739,"49":0.0046536215543543655,"50":0.02216931898129191,"51":-0.008081611631463046,"52":-0.06310519419214536,"53":-0.023212942410218887,"54":-0.0075457840424160766,"55":0.02600829985387439,"56":-0.009995374989545204,"57":-0.0183554731365551,"58":-0.07874712082280964,"59":-0.006251644848077074}},{"sx":1,"sy":1,"depth":60,"w":{"0":-0.0836903801805538,"1":0.002803409181066707,"2":0.0941149386611887,"3":-0.18072413179359248,"4":-0.06568747897297639,"5":-0.019895104496671243,"6":0.020590396544273425,"7":0.019111931988098303,"8":-0.08111333053738004,"9":-0.20129919261962104,"10":-0.061395885186913454,"11":-0.01672699780659868,"12":-0.11172602051437168,"13":0.09829817384357986,"14":-0.22083297720432957,"15":-0.0018904329529261948,"16":-0.0016384792571125832,"17":-0.0022275745147889905,"18":0.015880480900495184,"19":0.0022466481325244397,"20":0.04413582971186267,"21":-0.03442683132417747,"22":0.1201107824087724,"23":-0.023322228654585837,"24":-0.1101595127588744,"25":-0.014231523741157973,"26":0.014501223432023511,"27":-0.11245830874064253,"28":0.0325854922418723,"29":-0.0290737997829158,"30":0.08983313550972498,"31":-0.0006479957794930993,"32":-0.02291383048925566,"33":0.01507495673035288,"34":-0.06507019835421708,"35":0.0029381595101457313,"36":0.0019545653246667567,"37":0.004171136519826334,"38":0.0015789653823991862,"39":0.024415059865015253,"40":-0.09515269159622608,"41":0.040801293109176254,"42":0.002996910278038371,"43":-0.011766365082860332,"44":-0.005445803992411566,"45":-0.10177573120017643,"46":-0.0007737138402209724,"47":-0.02334255763626798,"48":-0.029827071526541987,"49":-0.005394300934645747,"50":-0.01437320998921719,"51":-0.11073351124656108,"52":-0.2984076369983761,"53":0.007774768250573692,"54":0.023301394515744422,"55":0.029000006515077274,"56":-0.03448024646536738,"57":-0.04353964283246012,"58":-0.17074150622900547,"59":-0.10308558446190505}},{"sx":1,"sy":1,"depth":60,"w":{"0":-0.024137615173368644,"1":0.013335795819954656,"2":0.08752371727977917,"3":-0.04854293503660832,"4":0.06779277527372313,"5":-0.09351212742401716,"6":0.02181783438149194,"7":0.09051196665371468,"8":-0.048208198927977536,"9":-0.12809031574169685,"10":-0.03480628925115796,"11":-0.005770482010146477,"12":-0.11904594051676443,"13":-0.02715470928613936,"14":-0.18528307158483995,"15":-0.009754109482627144,"16":-0.07643125098465779,"17":-0.01251350219844832,"18":0.03235569208349405,"19":-0.026665519175205633,"20":-0.013948399544373593,"21":0.2587199455374459,"22":-0.05230563768735613,"23":0.00868415484847356,"24":-0.06420254845170739,"25":0.01584488454940028,"26":-0.04071026995099991,"27":-0.02809943033755141,"28":-0.016299723618612472,"29":0.026598864491072023,"30":-0.03785512174878854,"31":0.0018543454328899102,"32":0.16135722864949717,"33":-0.0563673755417778,"34":-0.08960582615981179,"35":-0.027683968520288774,"36":0.010415282683217753,"37":0.03132638810131601,"38":-0.020754383011322732,"39":0.03844953084674554,"40":-0.07455463263368997,"41":-0.07377360349213345,"42":0.0038248746326324866,"43":0.0044475388538506725,"44":0.029337871446490586,"45":-0.11625895999062666,"46":0.004394763037104895,"47":-0.08069655357810734,"48":0.04778407300761039,"49":0.025581297954474076,"50":-0.021473704024257256,"51":-0.0412010638340689,"52":-0.21885503641963774,"53":0.02865367933519654,"54":-0.12255892202752279,"55":-0.003645010027664574,"56":0.01366838461304633,"57":-0.010178726788251678,"58":-0.09279161881388932,"59":-0.014109552065611939}},{"sx":1,"sy":1,"depth":60,"w":{"0":-0.12649607871607374,"1":-0.03197133905075361,"2":-0.05007554655888383,"3":-0.07319879969878776,"4":-0.1030659259767531,"5":-0.005598980689896506,"6":0.004804485530527931,"7":-0.0337005252541206,"8":-0.12477618349028162,"9":-0.11617089064297045,"10":-0.14797935367714962,"11":0.019606741169882032,"12":-0.05528174606246255,"13":-0.07260969648159689,"14":-0.3155840305492631,"15":0.0031689905493483645,"16":0.03770974821957572,"17":0.013942626196055683,"18":-0.0010686242727959558,"19":-0.019979089574566934,"20":-0.031095880282475685,"21":0.12477374469464618,"22":-0.011633784692554876,"23":-0.0027076569402572693,"24":-0.1942866181299201,"25":0.025775056349727796,"26":-0.014631980173942197,"27":0.05225732774895296,"28":0.0578357394704095,"29":-0.03236064126348761,"30":0.027412028392079665,"31":-0.013841878842839012,"32":0.07402351124097828,"33":-0.04827516143634372,"34":-0.04939329399661395,"35":0.008844748439777785,"36":0.0033339775690053907,"37":0.04973959812385397,"38":-0.02507360885260486,"39":0.0011547531393836768,"40":-0.13747077026199755,"41":-0.03932045208366478,"42":0.0005817858870493737,"43":0.007909306719474941,"44":0.03671045515022885,"45":-0.10100804583300585,"46":-0.10718695984629745,"47":-0.04854869799601656,"48":-0.03961381615754107,"49":-0.0036058975551125595,"50":0.03624981721678226,"51":0.10563275261616113,"52":-0.2725019547229378,"53":0.016158400419723856,"54":-0.08412947826843493,"55":-0.04511674406281023,"56":0.0688344311377201,"57":-0.08113137602607884,"58":-0.28891863128631545,"59":0.16612996925150744}},{"sx":1,"sy":1,"depth":60,"w":{"0":-0.011024966786171809,"1":-0.017994709563329787,"2":-0.0028527491212776298,"3":-0.03987832349829252,"4":-0.0557298676112793,"5":-0.09485021221617218,"6":-0.0016545593584791033,"7":-0.0001258418460235225,"8":-0.022601677013644496,"9":-0.10263563032821618,"10":0.13848701740097322,"11":0.03903202904510841,"12":-0.1239052006357758,"13":-0.059537292572128815,"14":-0.22154704697309252,"15":-0.02580215758962577,"16":-0.05177172463328965,"17":-0.02488846846462845,"18":-0.013499687755522623,"19":0.011419169426480129,"20":0.021469341166851914,"21":-0.08058618713745973,"22":0.059360056625011086,"23":0.0002972040361908744,"24":-0.09651511005711463,"25":0.011620625150113884,"26":-0.012657404389492272,"27":0.022743922358319655,"28":0.004072977079163089,"29":0.0009924175019548817,"30":-0.0659490134957966,"31":-0.011492667829894197,"32":0.07150087603563014,"33":-0.13736966300283832,"34":0.010687434859449486,"35":-0.0004799760228251106,"36":-0.0036373900171974296,"37":-0.018868781152166267,"38":-0.010892701778114851,"39":-0.009755642248936701,"40":-0.02009449740481807,"41":-0.015426134044927643,"42":-0.04085884791393182,"43":0.05550005981252411,"44":0.02219172996195319,"45":-0.09892490894101764,"46":-0.08979376848348539,"47":-0.03664759293449049,"48":-0.07820305352275926,"49":0.02009290861424978,"50":0.028199105952823454,"51":-0.08449284608617873,"52":-0.193041411240248,"53":0.012955522512561138,"54":-0.04536647368219928,"55":-0.026456345367554656,"56":0.015454061194371038,"57":-0.0158086471021293,"58":-0.20518253577483345,"59":-0.04924196919165856}},{"sx":1,"sy":1,"depth":60,"w":{"0":-0.060571941669253025,"1":-0.009818874287493598,"2":-0.1445037988663305,"3":-0.24619166370232864,"4":-0.07847294169183525,"5":-0.16055445355268377,"6":0.007222975966999065,"7":-0.017356497031730703,"8":-0.016511018188256857,"9":-0.2605207070714571,"10":-0.042433206785182705,"11":0.005580717542413954,"12":-0.23255200294267833,"13":0.0007823522943180172,"14":-0.5427441184248853,"15":-0.037342797018786775,"16":-0.040831939468735194,"17":0.0037306239185346873,"18":0.02004242942252521,"19":-0.004002917364587423,"20":-0.12441626884064504,"21":-0.004052058950894373,"22":-0.0031578409509127685,"23":0.031521837679693264,"24":-0.20528608312935492,"25":-0.020585531249674806,"26":-0.05029523939754571,"27":-0.02444805266888339,"28":-0.005750449598501051,"29":-0.028054970041205763,"30":-0.04676082259677275,"31":-0.021598352556667692,"32":-0.02167158638149192,"33":0.05580573177734379,"34":-0.11729832592951871,"35":-0.02259096396852668,"36":-0.002219452428696633,"37":0.01106408723597235,"38":0.006514062886450476,"39":0.002857830189436318,"40":-0.2963988771881311,"41":-0.04846434968947846,"42":-0.01289936050121486,"43":0.018345106050919994,"44":-0.007177928281879716,"45":-0.08934121629222722,"46":-0.017782591931368535,"47":0.10706115240864436,"48":-0.006794091331944503,"49":0.008574042514241181,"50":-0.000386668597209086,"51":0.005254273353208899,"52":-0.5194130186326394,"53":0.016832189342868065,"54":0.11186034816769251,"55":0.005629827910713564,"56":0.009206773895382405,"57":-0.011941697964744133,"58":-0.36340683152378656,"59":-0.09208583946502424}},{"sx":1,"sy":1,"depth":60,"w":{"0":-0.017892495941178345,"1":-0.006512201463455059,"2":-0.014303364347074474,"3":0.04248518248341315,"4":-0.04733576184290518,"5":-0.09881185604320185,"6":-0.021731444171792198,"7":0.04898610109718265,"8":-0.03607756268672608,"9":-0.0729149452460407,"10":-0.07322514444674956,"11":-0.01621637027144544,"12":-0.0774670788132052,"13":-0.08743303318466066,"14":-0.2092706699238524,"15":-0.03407976049658996,"16":-0.07334865082387111,"17":-0.03863478848497101,"18":-0.009364731162568923,"19":-0.015860647341199473,"20":-0.013648894224161262,"21":0.009065067497781108,"22":0.21438635561013844,"23":0.01745658829271943,"24":-0.06781524279974874,"25":-0.03982368007763171,"26":-0.08496559583394386,"27":-0.08113882834014015,"28":0.0015216788117712514,"29":0.03228178067593276,"30":-0.1181780412175659,"31":-0.0075628571177073865,"32":-0.04608716891065329,"33":-0.02616733755150744,"34":0.06769702726701254,"35":0.010273005266089758,"36":-0.0024040642459699875,"37":0.006235494433489132,"38":-0.01295465914324145,"39":0.0023497977942710416,"40":-0.07571082874901557,"41":-0.174497063744424,"42":-0.0008654437683627333,"43":-0.036131695006171013,"44":0.014601665414648794,"45":-0.17060606213662732,"46":0.012621114204936492,"47":-0.045109990786532925,"48":-0.061847897807928855,"49":-0.022138902981925536,"50":-0.04289868648705669,"51":0.1849426005986103,"52":-0.18557899668860925,"53":-0.005107996498080176,"54":0.00016037274702255613,"55":0.005499334869754999,"56":-0.08590723938550318,"57":-0.0539387475760946,"58":-0.34498667381876613,"59":-0.12416566974318127}},{"sx":1,"sy":1,"depth":60,"w":{"0":-0.33073381187073153,"1":-0.005902085916678256,"2":0.03513819737248144,"3":-0.13103952103377345,"4":0.04997919778965358,"5":0.10567885647814834,"6":-0.009263166565417043,"7":-0.0877708930671878,"8":0.014835303199276822,"9":-0.12095757863606067,"10":-0.014165664352002847,"11":-0.003098837409046915,"12":0.47125893315788725,"13":-0.0326153726269345,"14":-0.9607213935407232,"15":-0.03825624665704706,"16":-0.1000554670492103,"17":0.013375823895398582,"18":0.03912809392927754,"19":-0.015432836906648447,"20":-0.09070175867683815,"21":-0.07531595729123752,"22":0.002626736238594264,"23":-0.012554639951645841,"24":-0.19840791512339156,"25":0.006855406695534755,"26":-0.06685648710238,"27":-0.003955040215068489,"28":-0.013469147581642948,"29":-0.035592881502338934,"30":-0.03319538161472647,"31":-0.005163901072994774,"32":0.03205812156046311,"33":-0.5038496314366555,"34":-0.15091982316978217,"35":0.01540812600071197,"36":-0.00729453722461175,"37":-0.013008487095323224,"38":-0.0015003657421326234,"39":0.025887300978902874,"40":-0.12961504130664986,"41":-0.15700259911833772,"42":0.020997163953943788,"43":0.06784248690932435,"44":0.00600541950433724,"45":-0.09462520739705561,"46":0.06627151819706842,"47":-0.15725795421222663,"48":-0.04345894568284226,"49":-0.04479956859734631,"50":-0.08433145158325543,"51":0.041928961774788595,"52":-0.6740674279181856,"53":-0.010473203493271611,"54":0.37054731491991444,"55":0.020925160578716726,"56":-0.08499523665320154,"57":0.012868431980220283,"58":-0.7420844059054136,"59":-0.3574793076178997}},{"sx":1,"sy":1,"depth":60,"w":{"0":-0.0010619100709259397,"1":-0.00009186215975343788,"2":-0.006575225260425522,"3":-0.05292177603735538,"4":-0.04412444052175882,"5":-0.02504137398200074,"6":-0.02748389217624041,"7":-0.009839572239272143,"8":-0.08220091263247617,"9":0.006663184830802585,"10":-0.019392055594283898,"11":0.022628032835205862,"12":-0.04703431564286486,"13":-0.0258318235642197,"14":-0.08130093362436999,"15":-0.017591988061914213,"16":-0.01510739441174465,"17":-0.007355778925992691,"18":0.002519951547653679,"19":0.013325549912059961,"20":-0.019128795154507203,"21":-0.004779350455381874,"22":-0.05986615869813446,"23":0.0014023335337810365,"24":-0.07361712650023487,"25":0.029691880231475863,"26":-0.06585790043211268,"27":0.0032555628753016485,"28":0.014527468617315083,"29":0.0054852091078362265,"30":-0.07131073623396662,"31":0.03129925567071825,"32":-0.003402674605374529,"33":-0.033017346657534426,"34":-0.024793575834437774,"35":0.027294209234455656,"36":-0.01705743821591863,"37":-0.03987166157908985,"38":0.027549690012416403,"39":-0.0046051207467363055,"40":-0.049955732169332676,"41":-0.06977924528822874,"42":0.049890674235502135,"43":-0.022278889505092964,"44":-0.0014342479707553514,"45":-0.05650221132877164,"46":-0.0120047636652623,"47":-0.01686336331417345,"48":-0.03971998301813312,"49":-0.006281948020948593,"50":0.001989521142191723,"51":-0.005157811437305694,"52":-0.11880146216316655,"53":0.05845153774893603,"54":-0.026056707821943356,"55":-0.0022029036258455993,"56":0.0222741146935054,"57":-0.008964614862432796,"58":-0.09257675162644687,"59":-0.04141566420354856}},{"sx":1,"sy":1,"depth":60,"w":{"0":-0.13116481152802514,"1":0.019473678492055804,"2":-0.10093160578861453,"3":0.03132976404939635,"4":-0.004799382437554172,"5":-0.07149203426941315,"6":0.034816239033763706,"7":-0.013477778960194852,"8":-0.0278810043455026,"9":-0.09852413625448718,"10":-0.11148780867557671,"11":-0.03417966917537792,"12":-0.024202232972687022,"13":-0.22359532017854644,"14":-0.1573022130026741,"15":-0.029354259154765198,"16":0.012245967400436292,"17":-0.013912193262858327,"18":0.015743054981743894,"19":-0.010384455594136718,"20":-0.014237623887088801,"21":0.021234154397473316,"22":-0.042132743605161165,"23":-0.016808404125145646,"24":-0.13249286798964338,"25":0.015943510178636617,"26":-0.03558016481706354,"27":-0.10117059313683868,"28":0.0025035281447919992,"29":0.0026936751069734284,"30":-0.15757717729446477,"31":-0.011832405005960497,"32":-0.0431170965185168,"33":-0.07416071835816415,"34":-0.1641913468281197,"35":0.019655231892639125,"36":0.02409559459530354,"37":0.010041321010226619,"38":0.005517910414655724,"39":0.01005508104986575,"40":-0.10993060295960215,"41":0.06096727303136695,"42":-0.017153043366802036,"43":0.08409347710028972,"44":-0.008764650410537225,"45":-0.07218085450823745,"46":-0.010782891330206424,"47":-0.08403281665917917,"48":-0.09043211944961482,"49":-0.00936975398357633,"50":-0.014141314891450882,"51":0.1004259432185442,"52":-0.1748085986416681,"53":-0.01970460344306557,"54":-0.0546492920206191,"55":0.03291553295894361,"56":-0.13980791829187847,"57":-0.24279970629839268,"58":-0.30333727841197233,"59":-0.04830890402731533}},{"sx":1,"sy":1,"depth":60,"w":{"0":-0.1715472785184352,"1":-0.006658927726275025,"2":-0.0002780239559799684,"3":0.026446201073211432,"4":-0.08637672517695653,"5":0.007306249330813043,"6":-0.007963374470880191,"7":-0.0084315379617623,"8":-0.08848655613857825,"9":-0.010252733301601176,"10":0.05598379613123925,"11":-0.016297789611558786,"12":-0.16950694801301758,"13":-0.008531985979115175,"14":-0.1984421485384688,"15":-0.03444682872432741,"16":0.02094580414319666,"17":0.016604374530731957,"18":-0.01614015329668209,"19":0.014939314323415344,"20":0.03429108586699857,"21":-0.04839569349046038,"22":-0.01819556159281044,"23":-0.007016870288536605,"24":-0.10853445240951647,"25":0.006425577478730519,"26":-0.058670343711771496,"27":0.012647899941498952,"28":-0.017273287322593728,"29":-0.023019447741754337,"30":0.03182882765269043,"31":-0.0009364610682617273,"32":-0.004950308866497333,"33":0.04199060533247673,"34":-0.06549563117737786,"35":0.009393320395198303,"36":0.015925847645938854,"37":0.03479370511746812,"38":0.007262269955403969,"39":-0.004040785931925887,"40":-0.03568898320433143,"41":-0.06003898859288914,"42":0.008993540857390837,"43":-0.007267824925314145,"44":-0.015004654246169764,"45":-0.0383587968569462,"46":0.010272210081339682,"47":-0.005417308964977882,"48":-0.022512419085827833,"49":0.00677266564264239,"50":-0.042507437532900316,"51":-0.10769120327312161,"52":-0.19483635900246435,"53":-0.00557673732749048,"54":-0.06402609810493086,"55":0.038143205204124155,"56":-0.0021032633304479,"57":0.019858988298497856,"58":-0.17862994567727686,"59":0.008706968029968992}},{"sx":1,"sy":1,"depth":60,"w":{"0":-0.05378011823746184,"1":-0.004895846757632163,"2":-0.005891261345610516,"3":-0.03978717333196961,"4":-0.04505978170575829,"5":-0.036918255423106026,"6":-0.03509742737810956,"7":-0.019423512018659224,"8":-0.023066694082830897,"9":-0.02471622666802347,"10":-0.1293830224010964,"11":-0.0021264413922516493,"12":-0.08165143359271826,"13":0.18335286168425483,"14":-0.20844532883031386,"15":-0.032831698953648174,"16":-0.04746056024981914,"17":0.0030093952763842542,"18":-0.0008033190479627814,"19":0.013846407663403351,"20":-0.015420162338261337,"21":-0.013842344674194805,"22":-0.08201139046198598,"23":0.017845981052511627,"24":-0.057227308193919614,"25":0.015434460075776485,"26":-0.03712390622730067,"27":-0.056780820770995694,"28":0.0009163777406332242,"29":0.005573771944860738,"30":0.014490264358537949,"31":0.01727580132256308,"32":-0.0214102696647335,"33":-0.01608804885424194,"34":-0.07993387375232161,"35":0.026694739678058136,"36":0.012943819042971396,"37":-0.023550203209991866,"38":0.0818511149315207,"39":-0.00003461132772170937,"40":-0.03881779211636546,"41":-0.08768978078156364,"42":0.017756962443793,"43":0.021884471379798258,"44":-0.011053116013143696,"45":0.035610319119694145,"46":-0.049408053480500716,"47":0.017580050935333644,"48":-0.06534873307162853,"49":0.07337532478364486,"50":-0.013244201861258596,"51":0.06385439697657365,"52":-0.2050584103318973,"53":0.014296385005204476,"54":-0.013717851261582427,"55":-0.012304911550355261,"56":0.000843543777700717,"57":-0.08188636600537098,"58":-0.11942077383456341,"59":-0.04043955266883639}},{"sx":1,"sy":1,"depth":60,"w":{"0":-0.010372728751642512,"1":-0.01421306856441954,"2":-0.049693360251566836,"3":-0.034101771784718585,"4":-0.025366934615892126,"5":-0.04043309844167435,"6":-0.016381612853547747,"7":0.0063737643960695735,"8":0.04077186778577745,"9":-0.10463825165670705,"10":-0.04428393361245456,"11":-0.004920429766406346,"12":-0.08209114392892151,"13":-0.046834237206709484,"14":-0.18629238349361285,"15":0.058690549508145895,"16":-0.05458950185419937,"17":-0.036404475214158495,"18":-0.01594184274972609,"19":-0.025549787352536022,"20":-0.01645205375111869,"21":-0.02390405757952642,"22":-0.016023104094013113,"23":-0.023728525355921272,"24":-0.0462665384724159,"25":0.002428301914170643,"26":0.0015608789262296955,"27":-0.014481304416827961,"28":0.07772756064112431,"29":-0.00984232358634657,"30":-0.06207276554109799,"31":0.005032432038083353,"32":-0.015268105224397978,"33":-0.02969413858663868,"34":-0.07004395513616413,"35":0.0237520762671728,"36":-0.006573923072054742,"37":-0.017380751604197935,"38":0.024231557984526614,"39":0.03257365289124804,"40":-0.12888646135448967,"41":-0.02934198761695337,"42":-0.0024180831508789375,"43":-0.00005538538889862356,"44":0.0022919527452039605,"45":-0.023910093377502818,"46":0.09279742011628091,"47":-0.028524957920133407,"48":-0.003945742988352776,"49":-0.017841064395662114,"50":0.021087837670809285,"51":0.014910375105966114,"52":-0.16830136021168032,"53":-0.016143964676172788,"54":-0.01695492189152079,"55":0.011328786467638399,"56":-0.008125462744205891,"57":-0.014698793159768166,"58":-0.13757705361128894,"59":-0.09234568908110721}},{"sx":1,"sy":1,"depth":60,"w":{"0":-0.03813540808241699,"1":0.0033358183170836006,"2":-0.0181038432252345,"3":-0.05073672193988376,"4":-0.21667874046042454,"5":-0.11825615965389667,"6":0.02450134096625308,"7":-0.16225513386286294,"8":-0.05221783503833042,"9":-0.15583310704613726,"10":-0.0037077629567213075,"11":-0.021485213909667133,"12":-0.1353570433507254,"13":0.003257187597340852,"14":-0.13548928035304084,"15":-0.03332326956094018,"16":-0.10851997417859265,"17":-0.0107227841377965,"18":0.05536707462899019,"19":0.007331484977747248,"20":-0.03642771787929808,"21":0.1915173249585715,"22":0.007510759670170629,"23":0.01731762179938494,"24":-0.07806452218495702,"25":0.005508329824374781,"26":-0.09757520965567547,"27":-0.0008661530851493038,"28":-0.04350662710675948,"29":-0.057009512042288095,"30":-0.024450929855467513,"31":0.02211397729164089,"32":0.21738493770737807,"33":-0.022649585395287664,"34":-0.08102625354979391,"35":-0.011281754922048807,"36":0.03231178009517312,"37":0.000597196176664802,"38":-0.02800453651678057,"39":-0.006721281189545641,"40":0.15037206778950318,"41":-0.05480101869235282,"42":-0.025934677367709696,"43":-0.02411425445912292,"44":0.04909138181443589,"45":-0.10294601900913823,"46":-0.023926047436859332,"47":-0.09768260431541856,"48":0.1297609915762743,"49":-0.037892089255266805,"50":0.0004121014355694609,"51":-0.018319648501688296,"52":-0.27033816396312904,"53":0.003581645740006259,"54":-0.1219128592791081,"55":0.009431159687829167,"56":-0.02093985327256873,"57":-0.00020889979643168923,"58":-0.29733173777202726,"59":-0.057044543670322856}},{"sx":1,"sy":1,"depth":60,"w":{"0":0.024177612264513745,"1":0.011939050222170096,"2":-0.046992172198941945,"3":-0.03521167948602398,"4":-0.0033721730347588213,"5":-0.0148530616029308,"6":0.016014042085090628,"7":-0.02152119646430569,"8":-0.0023048454151712696,"9":-0.04584741652075257,"10":0.01535776813374104,"11":-0.03488250899876686,"12":-0.04926707709431771,"13":0.01686493239204243,"14":-0.021268477481195536,"15":-0.031574045342151746,"16":0.0006947212534307632,"17":0.010633083878589508,"18":0.01926917015966983,"19":-0.030879636328051057,"20":-0.014515655465782635,"21":-0.03129890581183263,"22":-0.0020366142367629673,"23":0.01982002549811545,"24":-0.009706931344347114,"25":-0.025311070208112515,"26":-0.0027227376582012507,"27":0.023642299629890874,"28":-0.01993517486582201,"29":-0.00501944906980059,"30":-0.016560227856665676,"31":0.0007550838372609443,"32":0.004652366434308271,"33":-0.003635819056536223,"34":-0.028549851638598835,"35":0.018297087992172868,"36":0.013200700788816268,"37":0.015218729849433198,"38":-0.00575771552352187,"39":-0.018146666379199993,"40":-0.01785716448116192,"41":-0.020961424330324996,"42":0.021997709334214483,"43":0.013329227923685683,"44":-0.008569169960606391,"45":-0.009248095696155444,"46":-0.009012269012353994,"47":-0.00534059488090158,"48":-0.03264485277760616,"49":-0.0010549038415354301,"50":0.005031643305083416,"51":0.02845322697117901,"52":-0.045053945792365005,"53":0.014783751087416589,"54":-0.03302465706758918,"55":0.029752297893529952,"56":0.01078475037575753,"57":-0.014612657673471316,"58":-0.028792752944441814,"59":-0.00977453066237862}},{"sx":1,"sy":1,"depth":60,"w":{"0":-0.3138634173690965,"1":0.00039047587195719936,"2":-0.15959648431880727,"3":-0.006151221905832517,"4":-0.17423820586892338,"5":0.04159198777710063,"6":-0.01424080939139053,"7":0.012127454947342015,"8":-0.11931846009969521,"9":-0.252871468309869,"10":0.14898853992764402,"11":-0.012051747860592663,"12":-0.27351063940693476,"13":-0.0816518438777195,"14":-0.36312805571300527,"15":0.0022538300848743958,"16":-0.009272954775527647,"17":-0.007201237253200007,"18":-0.04359135680245289,"19":-0.013174673282081313,"20":-0.10546739851762617,"21":-0.03833850114814954,"22":-0.061472471837739136,"23":-0.019391801164922357,"24":-0.25702999286451234,"25":-0.005380480836323649,"26":-0.09514210414981801,"27":0.05969463529755362,"28":-0.02466639375081428,"29":-0.01618447138444644,"30":-0.05915255439017697,"31":0.00819086240355732,"32":-0.02014442288670052,"33":0.07965998264636093,"34":-0.054025430413515235,"35":0.03535689855999282,"36":0.006937978774383631,"37":-0.024300222838071844,"38":0.024689426989975626,"39":-0.004071658317007174,"40":-0.09607770991249658,"41":-0.17995799082664232,"42":0.022237770116318757,"43":-0.050337773267626534,"44":0.041887263729343,"45":-0.044625196925816145,"46":0.034680570414922965,"47":-0.08571139318956897,"48":-0.035581378474327796,"49":0.006001576427188905,"50":0.02471091167978947,"51":-0.08194587281743895,"52":-0.5298976891154432,"53":0.019787009834088282,"54":-0.10105995079120261,"55":0.014522019705832147,"56":-0.03485564463844093,"57":0.08946194619285065,"58":-0.37889223554092744,"59":0.14065993792636503}},{"sx":1,"sy":1,"depth":60,"w":{"0":0.16315057668872393,"1":-0.010620970003747496,"2":-0.059898696922817386,"3":-0.08198833679052318,"4":-0.2722998167313389,"5":-0.11799416633880515,"6":0.009582481162114798,"7":-0.12303389367472244,"8":-0.16932110050668453,"9":-0.05273397536744722,"10":-0.10511090829103761,"11":-0.032840270962033256,"12":-0.1837171987814788,"13":-0.1373003319716394,"14":-0.3269337660626666,"15":-0.004750670047651367,"16":0.12552768125047437,"17":-0.003066970063555593,"18":-0.0010834121856974092,"19":-0.017162249539050357,"20":-0.044975821264718066,"21":-0.108903226714262,"22":-0.16496829654565262,"23":0.019533266780697712,"24":-0.2785015124547433,"25":-0.0034561769403400767,"26":-0.08059843493382753,"27":-0.04049234052754971,"28":-0.013525206599625214,"29":0.0063206787946974,"30":-0.13767711923305792,"31":-0.02050088829249036,"32":0.009277472895206758,"33":-0.06179051165564328,"34":-0.025889734938696132,"35":-0.03624686830746792,"36":-0.031795273584523075,"37":0.039561411296303445,"38":0.001400128229135968,"39":0.008106814550597665,"40":0.12874572300716683,"41":-0.14468387598067164,"42":0.015131033536134165,"43":-0.06294542975112227,"44":-0.013583557064580944,"45":-0.16502001234253325,"46":-0.08041321792743383,"47":-0.03451706106608967,"48":-0.13199864510245002,"49":-0.0067315742003505605,"50":0.06134959904419689,"51":-0.01979318443279079,"52":-0.37061097216237315,"53":-0.003635200257198022,"54":-0.24966725451647642,"55":-0.03773636665035543,"56":-0.07071589260012619,"57":0.05651637753710661,"58":-0.20227532499479295,"59":-0.0983243458576295}},{"sx":1,"sy":1,"depth":60,"w":{"0":-0.13935417868864333,"1":-0.021345072239687915,"2":-0.0495824360663168,"3":-0.07324688885963185,"4":-0.04091469406479278,"5":-0.023249133469904374,"6":-0.061342160885156316,"7":0.025585489678792057,"8":-0.038942236474813735,"9":-0.08523401900012766,"10":0.06914988415862118,"11":0.01362697603856243,"12":-0.06100138457810634,"13":-0.007217950363073476,"14":-0.3197980286200773,"15":-0.0019464173512379567,"16":0.0006100399314728309,"17":-0.013662834624168778,"18":-0.0017629456659080235,"19":-0.03097464178115353,"20":0.004221871427315435,"21":-0.060292704639462485,"22":-0.03771909942928864,"23":0.0025318798343449828,"24":-0.049309284297979684,"25":-0.014525774161160961,"26":-0.01991204978039709,"27":0.06559418641153632,"28":0.007955011592572739,"29":-0.00760506803926793,"30":-0.008999445277623539,"31":0.016224836445411468,"32":-0.022286312264293583,"33":0.12380955863979407,"34":-0.16514574540407315,"35":-0.0038697808448174054,"36":-0.032767124834108007,"37":-0.020835114061542218,"38":0.0010809228802764587,"39":-0.0092645059883919,"40":-0.027724127999065436,"41":-0.11826141000589073,"42":-0.0163336638613925,"43":0.014625760158458727,"44":0.017964759131677433,"45":-0.003360179318859181,"46":-0.0064974031736315056,"47":0.04160450627674876,"48":-0.0009584548149375773,"49":-0.00294140848075417,"50":0.02241927574589051,"51":-0.12875809175322833,"52":-0.27697706831061075,"53":-0.016039684037199388,"54":0.06419595503579378,"55":0.05177022164505573,"56":0.11209368195851661,"57":0.020570078736639606,"58":-0.20136263280369399,"59":0.10265069553745212}},{"sx":1,"sy":1,"depth":60,"w":{"0":-0.021544780706583548,"1":0.012838067241912382,"2":0.15827719896025724,"3":-0.19982003798743986,"4":-0.013571664230585458,"5":-0.09853381187825218,"6":0.03419930039310222,"7":-0.012152349112186408,"8":-0.13533824984939996,"9":-0.23664549262350928,"10":-0.08106162161386396,"11":-0.007596197774821242,"12":-0.10963835479550478,"13":0.03625703602983112,"14":-0.3219054327671098,"15":0.02303746251607152,"16":0.010643330154303349,"17":-0.00845878480875709,"18":-0.006993980410352057,"19":-0.045377261920811256,"20":-0.004043148066789305,"21":-0.015524770807107168,"22":0.16287304264230787,"23":-0.006720742336364455,"24":-0.25435691103889446,"25":-0.010381611143861732,"26":-0.013492066564294405,"27":-0.013251755670197093,"28":0.03574074547408081,"29":0.00463963869707047,"30":0.12759625194566257,"31":-0.02468760055509757,"32":0.1331319211621048,"33":-0.09627427942463794,"34":-0.16203765563434508,"35":0.016871741914027374,"36":0.00976868331396322,"37":-0.017401115773338274,"38":-0.016613747878464476,"39":-0.024719242711145232,"40":-0.12211040935708775,"41":0.09451286611699926,"42":-0.028584224622058292,"43":0.014255245734495107,"44":-0.012794299766914149,"45":-0.1928194054582825,"46":-0.05176865629048338,"47":-0.002570073422594981,"48":-0.0730316464961004,"49":0.005700275776355586,"50":0.049471618027658794,"51":-0.17372881203596438,"52":-0.5186663254813383,"53":0.0052743671051271,"54":-0.08555936516109525,"55":-0.019691042352084073,"56":0.023800817184560556,"57":-0.10486188084642317,"58":-0.2912994471557552,"59":-0.12252106162066757}},{"sx":1,"sy":1,"depth":60,"w":{"0":-0.029725976306807362,"1":0.02544744620960689,"2":-0.019258190331514286,"3":-0.03535106100853605,"4":-0.013246548602620456,"5":-0.009323271651672025,"6":0.03248006003902432,"7":-0.03854185277152898,"8":-0.008332443710315517,"9":-0.03174529381335431,"10":0.008730465739558562,"11":-0.007146204562635947,"12":-0.045277421776993065,"13":-0.0007233136472675054,"14":-0.06296238919826355,"15":-0.002895052374216487,"16":-0.0029283407812012753,"17":-0.0212898724373943,"18":0.04035907730212375,"19":0.006142645915090099,"20":-0.03379231479174958,"21":0.0003240274813892828,"22":-0.04794638331746374,"23":-0.0021121778683782606,"24":-0.0746651576585894,"25":0.010913124870299978,"26":0.03507998621807044,"27":0.02476254313003284,"28":0.04713151044012278,"29":-0.017122009204012627,"30":-0.009047348644089959,"31":-0.02015591705462063,"32":-0.01524236383284604,"33":-0.04057245708880985,"34":-0.0275373716939861,"35":0.018459826389854748,"36":0.012593373748659719,"37":-0.0020280869209075266,"38":0.04522727044186116,"39":0.004516443776340512,"40":-0.05953134562745954,"41":-0.08042208786592676,"42":-0.010220208754224384,"43":0.006347665605705975,"44":0.009369779419931156,"45":-0.03271986637804682,"46":0.021861483235887626,"47":-0.010023927051847598,"48":-0.02864102666863714,"49":0.04070797443020555,"50":0.030646625763745126,"51":-0.025353593558291247,"52":-0.10863819234685121,"53":-0.007071076947170031,"54":-0.021790386361660002,"55":-0.024882229050779386,"56":0.042504463856428594,"57":-0.006711575422233702,"58":-0.10499972594558216,"59":-0.025593013638959085}},{"sx":1,"sy":1,"depth":60,"w":{"0":-0.20099944034336487,"1":-0.007014010464591941,"2":0.006922371678346046,"3":-0.1705872596052681,"4":-0.12816257477721318,"5":-0.14676705342554502,"6":0.015621693218248443,"7":-0.08303274395673826,"8":-0.1946350916121698,"9":0.012592446294419557,"10":-0.008561330585836056,"11":0.02131032958298057,"12":-0.17692441636940354,"13":-0.04751296645236299,"14":-0.23241008192564694,"15":-0.05789452089703229,"16":-0.04236944682803571,"17":0.0012330996327714944,"18":-0.010852969344315155,"19":0.029088615940776386,"20":-0.07663592803071113,"21":-0.23356859099829144,"22":-0.0035031074899068747,"23":-0.0004571784619250098,"24":-0.43070203309250377,"25":-0.003739055374474975,"26":0.00030126649296252883,"27":-0.05578593211584558,"28":0.014761195466038294,"29":-0.0448779945497261,"30":-0.06154440431864157,"31":-0.014692867780146534,"32":-0.07040374372995005,"33":0.05441526074297147,"34":-0.12080290592425713,"35":-0.023716356095999792,"36":0.012446312777968297,"37":0.0710612019020012,"38":-0.028412579954067187,"39":0.011404874977406764,"40":-0.09425475344492518,"41":-0.20154689765203035,"42":-0.03486014970706514,"43":-0.09230524658759214,"44":0.009318837295791154,"45":0.020984569389991752,"46":-0.03752608044905173,"47":0.15591320014025276,"48":-0.10595203064700152,"49":-0.0021191061779593998,"50":-0.03748507342898817,"51":-0.06693137719439865,"52":-0.3431123941791494,"53":0.011488671514502741,"54":0.0685895848758602,"55":-0.00843342949749636,"56":-0.04770116958435859,"57":0.04487195407007397,"58":-0.5115764750512003,"59":-0.08942866032934346}},{"sx":1,"sy":1,"depth":60,"w":{"0":-0.2196035907764388,"1":0.00370440498012643,"2":0.13194932704438503,"3":0.022194181330947693,"4":-0.050080738100122923,"5":0.4774836401483838,"6":-0.00015184692023500592,"7":0.07687871660163009,"8":-0.04237718329636614,"9":0.13929098490055866,"10":-0.032286668959797885,"11":-0.009627039875659296,"12":-0.2643595464521419,"13":-0.004515942603563326,"14":-0.84459886648407,"15":-0.015311027632689142,"16":-0.007848960161468362,"17":0.021515737353073147,"18":0.0074910569464050804,"19":-0.0345924773501113,"20":0.07066515569087477,"21":0.0118318214741928,"22":0.22814469134771614,"23":0.004921137441868019,"24":-0.35456959754395423,"25":-0.017796406713693515,"26":0.12495413835821513,"27":0.17724977024007188,"28":-0.081507741308995,"29":0.02614586541200601,"30":0.278525488975395,"31":-0.007518612075538106,"32":-0.0035306259822920605,"33":0.1479052717690212,"34":-0.42302366152766463,"35":0.03726120137953367,"36":0.003532882443276316,"37":0.014896409952191459,"38":0.11447011843516149,"39":-0.001938251974803307,"40":0.22172993016926099,"41":-0.3513818269408148,"42":0.0326745439783969,"43":0.009043768350860053,"44":-0.021997624886502844,"45":0.03542649076617101,"46":-0.04346566682464805,"47":0.056617311139231755,"48":0.09984687709957385,"49":0.051869535360703364,"50":-0.007647877065340029,"51":0.04801726372650425,"52":-0.7889311724041767,"53":0.003829018277238268,"54":0.2865997874267504,"55":0.023391709011538163,"56":0.0029552159649889717,"57":-0.029702696721018655,"58":-0.7930816322909522,"59":-0.03446657578455057}},{"sx":1,"sy":1,"depth":60,"w":{"0":-0.17722000641006574,"1":-0.01173286860516574,"2":-0.13957945700787916,"3":-0.12237163744709127,"4":-0.025758337042239416,"5":-0.03853914659082749,"6":0.019283191158065562,"7":-0.09557428686491945,"8":-0.052971508502595,"9":-0.11222725065560302,"10":-0.01248964162515943,"11":0.03059167166046188,"12":-0.013088651168552958,"13":0.1300332989913679,"14":-0.5003238390661815,"15":-0.020677532082180067,"16":-0.0022556356706161613,"17":-0.008571390840784893,"18":0.006037680678708967,"19":-0.002776472561581155,"20":0.030249218515188935,"21":-0.05340817084060072,"22":-0.10308441271756447,"23":-0.0034613130099264565,"24":-0.2758850699414197,"25":0.059141703037755705,"26":-0.29474715542888646,"27":-0.01814415223458979,"28":-0.0213255638417051,"29":-0.0149009236348113,"30":-0.0007080659234499093,"31":0.06243872912383259,"32":-0.023674492341724106,"33":-0.009007168094772427,"34":-0.19269835135390193,"35":0.034460950289890824,"36":-0.004303197572167836,"37":0.007945914441984014,"38":0.01491441466858632,"39":0.02056249234808802,"40":0.08341204814086944,"41":-0.08595992109915433,"42":0.05337195548023373,"43":-0.05292226208571933,"44":-0.005929250758558119,"45":0.13719879350050024,"46":-0.039317111156425846,"47":-0.02862187939155619,"48":0.048627173267347105,"49":0.010273607527057577,"50":-0.0876492056579507,"51":-0.032701067463480255,"52":-0.41044665064794944,"53":0.0033736003391502483,"54":-0.11148970813572485,"55":-0.029014544122575706,"56":-0.09706872788513043,"57":-0.03886667472204119,"58":-0.43364214581781985,"59":0.05494945038345002}},{"sx":1,"sy":1,"depth":60,"w":{"0":0.02146618396803323,"1":-0.013037379080702507,"2":-0.041934136182986,"3":-0.11358647494003499,"4":-0.36437283317382624,"5":-0.0657670888566468,"6":-0.0158629054250539,"7":-0.2056000053319128,"8":-0.09087233241167912,"9":-0.1330857660413978,"10":0.003776470108116161,"11":0.023100233059530198,"12":-0.15817534254215282,"13":-0.030792757819034875,"14":-0.22568785789004292,"15":-0.0027473283011770575,"16":-0.13174001724112475,"17":0.0034506933093273093,"18":0.01831937462212935,"19":-0.01704170571357742,"20":0.015476472354614109,"21":0.12963455755197023,"22":-0.07257090393471033,"23":-0.011996140345110838,"24":-0.1363968107859826,"25":0.0033748175810378762,"26":-0.10241994727175448,"27":-0.035630410892759194,"28":-0.026672705780077424,"29":-0.011514814330227397,"30":-0.014180395463413,"31":-0.02899851788973971,"32":0.35368549017143286,"33":-0.02292444074540141,"34":-0.05665878377910279,"35":-0.008881378286301974,"36":-0.02721636906628363,"37":0.007319189133170453,"38":0.017545884772039617,"39":-0.009524097520407867,"40":0.19857058514370862,"41":-0.12207259606000812,"42":-0.02744467749502731,"43":-0.026996156763137474,"44":-0.00784919602218618,"45":-0.14958953719075424,"46":-0.006566295341745063,"47":-0.06217402033425162,"48":0.175042645193912,"49":0.007428462040375758,"50":0.02128912801326914,"51":-0.030106663401676545,"52":-0.40801138444668056,"53":-0.0037220449621649344,"54":-0.15417236558679695,"55":-0.013063611926837356,"56":-0.03753545093318791,"57":-0.0601507746649923,"58":-0.49979312390956493,"59":-0.08854878636561717}},{"sx":1,"sy":1,"depth":60,"w":{"0":-0.0794131373917423,"1":-0.006716822272156616,"2":-0.0328434201695373,"3":-0.003419341191118287,"4":-0.013272616076035628,"5":-0.05210687761594497,"6":0.013964299945073295,"7":0.029837280545672,"8":0.02308317734430596,"9":-0.09230210412829913,"10":-0.025725426628933547,"11":0.03827742234479275,"12":-0.061818123772306145,"13":0.011968114313782498,"14":-0.14012932818904295,"15":-0.03848120076576638,"16":-0.07595669614589763,"17":0.0013858481704710729,"18":0.04229942752665047,"19":-0.007823657409865674,"20":-0.056450135370714416,"21":0.010131837621635378,"22":-0.052282380643643905,"23":-0.01541820137808742,"24":-0.08209383004776155,"25":-0.018779467488105196,"26":-0.014344356450593553,"27":0.0012285163182340238,"28":0.0033209618203925407,"29":0.05503576640661942,"30":-0.005287596955852531,"31":-0.014218455736371465,"32":0.0020389131482073295,"33":0.060984361080832876,"34":-0.034221234484183204,"35":0.006014722428202308,"36":-0.01891180266905269,"37":0.03789031421474529,"38":-0.03035269936529692,"39":0.024083520023836923,"40":-0.02980965258006053,"41":-0.0161474309734532,"42":-0.009801549272645045,"43":-0.009225502419711207,"44":-0.021843844943365054,"45":-0.026772338267762496,"46":0.00666188194834433,"47":-0.030864626321823883,"48":-0.020481568511797676,"49":0.0038163095645393865,"50":-0.031958571876184005,"51":-0.002902038782063115,"52":-0.11820451907472967,"53":0.015213969207797294,"54":0.0678832943119936,"55":0.0077268106361437746,"56":0.011489384078339517,"57":0.02296496538594034,"58":-0.08534928668427444,"59":-0.0628149748278167}},{"sx":1,"sy":1,"depth":60,"w":{"0":-0.01813683798895203,"1":-0.013466093982198087,"2":-0.0439404625896686,"3":-0.006515269449634245,"4":-0.016566773228162184,"5":-0.046353014311446776,"6":-0.03541422500702365,"7":-0.027345075111118687,"8":-0.055334282572476,"9":-0.03356449883497973,"10":-0.040901725077246286,"11":-0.00804303424322714,"12":-0.04884470493450224,"13":-0.06673599962962906,"14":-0.13092320019918713,"15":-0.024792543945844566,"16":-0.009596624838387094,"17":0.008307957998064018,"18":0.05816951376401569,"19":0.004386587570100403,"20":-0.04249025493303685,"21":0.0037850918439625704,"22":0.1635360565235082,"23":0.009074753274745927,"24":-0.016203435729363676,"25":-0.009968745732724325,"26":-0.0458684815739249,"27":-0.00343527277301845,"28":-0.0033702450783956606,"29":0.020355678107951195,"30":-0.03319255744418566,"31":0.0009438592766254524,"32":0.023771800829185577,"33":-0.06165055115382849,"34":-0.07709196227128623,"35":-0.0015395036685751048,"36":-0.005927739372037999,"37":-0.01662645464446176,"38":-0.04029078815627562,"39":0.0051663638242422745,"40":-0.07619318389029969,"41":-0.07700409439241522,"42":0.00393179763820967,"43":0.04846996232206351,"44":0.04056632459188528,"45":-0.07025393106527492,"46":0.007382036102348798,"47":-0.028637505943094402,"48":-0.05130084205269172,"49":0.004675568618574957,"50":0.013421356902469263,"51":0.08036994565423802,"52":-0.25108631616942834,"53":-0.0004338417971006548,"54":0.011512962858693403,"55":-0.007281953342924015,"56":-0.02845496986589551,"57":-0.05234535858527625,"58":-0.2693189317675908,"59":-0.040255068124440255}},{"sx":1,"sy":1,"depth":60,"w":{"0":-0.06157921980907534,"1":0.008081051504931895,"2":-0.08445693509663878,"3":-0.0631101208068301,"4":-0.016866973041386006,"5":-0.042905105096797944,"6":-0.009991013547920646,"7":-0.008466543687531218,"8":-0.0752682605024212,"9":-0.13798015766788124,"10":-0.17616490833495255,"11":0.06003127125037089,"12":-0.04936589734553372,"13":0.030319712976705677,"14":-0.28204688727723665,"15":-0.012438757264570353,"16":-0.05615971706903709,"17":-0.02601957950346941,"18":-0.020215068275619023,"19":-0.0412816876249929,"20":0.0042963319019278,"21":-0.008722033803956947,"22":-0.10342389255590523,"23":-0.03102909739615472,"24":-0.18382050907504635,"25":0.010671588506617941,"26":-0.007942250899140836,"27":-0.024198529512708948,"28":0.011442297445331614,"29":-0.037502452995874375,"30":0.011917981901771218,"31":0.009626199290980013,"32":-0.003447680489114208,"33":-0.017680652691852285,"34":-0.006877033559200732,"35":0.04237176862937575,"36":-0.008765008144189899,"37":0.02644734855697496,"38":-0.07037884924675751,"39":0.019934816548492707,"40":-0.13357568069462944,"41":0.025877628409929982,"42":0.015477603812274084,"43":0.002489356955416238,"44":0.016796124397151783,"45":-0.06591076156178877,"46":-0.1060867585513679,"47":-0.0025223170481476188,"48":-0.05222264324666177,"49":0.0040600640188976885,"50":-0.010413128243661364,"51":0.13636065743418063,"52":-0.26793334615049746,"53":-0.01331673486006233,"54":-0.012560048715108124,"55":0.02330893112557587,"56":0.017664361496965993,"57":-0.06204397499190266,"58":-0.20019033198386751,"59":-0.10511701950314888}},{"sx":1,"sy":1,"depth":60,"w":{"0":-0.0974977731834128,"1":-0.0008979068083750506,"2":-0.0745079325487409,"3":-0.08622323822689838,"4":-0.017178312272455993,"5":-0.06369862328375703,"6":0.022312702902420625,"7":0.004646768428321379,"8":-0.024786813737483485,"9":-0.127992903880786,"10":-0.04051026239079472,"11":-0.01487685867236612,"12":-0.11267288759181102,"13":-0.007183991880851338,"14":-0.2835214924425187,"15":-0.05531907396802312,"16":-0.010503105089798018,"17":0.0013413433695030712,"18":0.05318570332487631,"19":0.015039286350834034,"20":-0.06642406184697996,"21":-0.007551000838362804,"22":-0.005689997853985176,"23":0.0021261120643662756,"24":-0.11469143747626769,"25":-0.022265477502879147,"26":-0.0028279925995935845,"27":0.04414005812766996,"28":-0.0024355721905925114,"29":-0.027883577136267115,"30":-0.0755758881728276,"31":0.0061376896198262745,"32":0.02001622929983019,"33":0.09834704622089475,"34":-0.11778504826729602,"35":0.011041762319047865,"36":0.00530185914787979,"37":0.039255825146614756,"38":-0.012344646534751142,"39":0.004233663564555454,"40":-0.13619530453805312,"41":-0.0624901449798642,"42":-0.0006840456540125806,"43":-0.006214919199457966,"44":0.013433937084552986,"45":-0.010954354419416236,"46":-0.04891500397529533,"47":0.05923285686195622,"48":-0.03562417944198667,"49":-0.01266531801034694,"50":-0.019818895449932844,"51":-0.010417387414045437,"52":-0.2775015815437492,"53":0.00581616543321202,"54":0.03719062652906112,"55":0.021603443407448488,"56":0.03612825410684993,"57":0.010847642868250434,"58":-0.17519969978534947,"59":-0.09559295241170968}},{"sx":1,"sy":1,"depth":60,"w":{"0":-0.06829247363405253,"1":0.031569486368329076,"2":-0.036221978504666553,"3":-0.06697556825920749,"4":-0.05267739965810855,"5":-0.02254067181119948,"6":0.015243596256802144,"7":0.0006443767663350789,"8":-0.07880272749709859,"9":-0.033505043693382294,"10":-0.07962282898833917,"11":-0.02638214185988547,"12":-0.09106786841658547,"13":0.01591650054396097,"14":-0.1232062345211546,"15":-0.029120660607678404,"16":-0.03120866777703618,"17":-0.014075513680615305,"18":-0.013183899279141804,"19":0.009458487058069188,"20":0.012459695043038725,"21":-0.00025094304787214093,"22":-0.03737442362356431,"23":0.004448040942298139,"24":-0.06748263851620312,"25":0.007161506815933385,"26":-0.024410066274758696,"27":-0.04882891980675193,"28":-0.009783800141050887,"29":0.02214384609061533,"30":-0.009671574733208019,"31":0.01536135848932505,"32":0.004535957450617097,"33":0.022368138290933693,"34":-0.04171157461497812,"35":0.019857790487418498,"36":-0.011143108643478568,"37":0.004735859707293917,"38":0.016472382535056864,"39":-0.0011922192271484656,"40":-0.05346233375232178,"41":-0.08493210072098205,"42":0.010460551717026968,"43":0.006689888235703063,"44":-0.0004161390041395079,"45":-0.006399723482559358,"46":0.0064232490212209675,"47":-0.020918720644744926,"48":-0.02299800487376704,"49":0.03223495976041659,"50":-0.004445721089822336,"51":-0.002021552615303514,"52":-0.0604088120211579,"53":-0.009975422174839843,"54":0.00308369549568305,"55":-0.04199087063177625,"56":0.01931869847854788,"57":-0.02697672351022734,"58":-0.07324990926365407,"59":0.02647812915829491}},{"sx":1,"sy":1,"depth":60,"w":{"0":0.04633118470953985,"1":-0.0032804311917492383,"2":0.051501241293545275,"3":-0.10127393907749282,"4":-0.15743926685555806,"5":-0.03736217285720019,"6":0.023715031404699462,"7":-0.022538985559369683,"8":-0.10915511791684403,"9":-0.14629458905528245,"10":-0.14235475918231655,"11":-0.005995615517226387,"12":0.002608947506009368,"13":0.0717578434214054,"14":-0.36779728200198325,"15":0.005285143700550112,"16":0.024209184608845934,"17":-0.0067498312221989255,"18":-0.012669726346936479,"19":0.012304231547590689,"20":0.014640872351372071,"21":0.07931576471015798,"22":0.10275773127386745,"23":-0.025222624535942935,"24":-0.3264693248026068,"25":-0.02210666525912853,"26":-0.042754248056385655,"27":-0.1001898317549192,"28":-0.002636076724033915,"29":-0.02449610502470479,"30":0.06169919217332798,"31":-0.006768016509379368,"32":-0.018168154661670214,"33":0.01831750647676392,"34":-0.19866243269688655,"35":0.00939092563017643,"36":-0.018712368770456095,"37":0.02045334476056601,"38":-0.033458986055116643,"39":0.03491814947474153,"40":-0.12446526071838698,"41":0.12064776972629772,"42":-0.017589077499126648,"43":-0.0003175821517801528,"44":0.038613627146229165,"45":-0.024078649581254972,"46":-0.008489817251426574,"47":-0.08333487754688924,"48":-0.007621098919646381,"49":-0.009721660323980605,"50":0.009469590941252702,"51":-0.23899023390861293,"52":-0.416449894324765,"53":-0.02205704146470673,"54":-0.14478590252299375,"55":0.0030888058459859805,"56":-0.018541184579487422,"57":-0.07416225251262129,"58":-0.2501582183664157,"59":-0.16145841430020097}},{"sx":1,"sy":1,"depth":60,"w":{"0":-0.07686474076998122,"1":-0.004641760838266347,"2":-0.02228380459135442,"3":-0.06757554334120705,"4":-0.16791377454147496,"5":-0.012200602509129342,"6":-0.00046594053493347065,"7":-0.053862423489395364,"8":-0.07784624763876015,"9":-0.2209046133528112,"10":-0.0743354960599254,"11":0.010615912739158408,"12":-0.12687897941069745,"13":-0.07094977968172277,"14":-0.22126073905642527,"15":-0.03135044546100853,"16":-0.024762410334795808,"17":0.025325303945776544,"18":-0.0224481061433367,"19":-0.032961511208085534,"20":0.006091516700984275,"21":0.13513608761986765,"22":0.22178948887217317,"23":-0.043668623807460255,"24":-0.12542481986850867,"25":0.011835182640210606,"26":-0.13699159518412063,"27":0.005819776843455155,"28":-0.009668012230210268,"29":0.04121668923333962,"30":-0.08266588251406803,"31":0.0027405640108409315,"32":0.22126465664866632,"33":-0.11163640709922022,"34":0.06827934178151789,"35":0.0037928088161198314,"36":-0.02292683800774145,"37":-0.04027119289492063,"38":-0.024469189097207467,"39":-0.016055298528297953,"40":-0.21351501275418125,"41":-0.10314643198320159,"42":0.0030276334105825728,"43":-0.013858709687231378,"44":0.02665536581007042,"45":-0.2567733546386915,"46":-0.06275544725278052,"47":-0.05597624169314603,"48":-0.1817325762098151,"49":0.0011449541637911628,"50":-0.01127284891282863,"51":-0.08753187019826611,"52":-0.38755793505927527,"53":-0.007009711395078902,"54":-0.12870143827578906,"55":-0.01600478798562699,"56":-0.030508610459367463,"57":-0.03366710426921259,"58":-0.30148155028644197,"59":-0.05426309753717725}},{"sx":1,"sy":1,"depth":60,"w":{"0":-0.06682152259126205,"1":-0.01748529436035324,"2":-0.022584161160870076,"3":-0.006747530863990236,"4":-0.060820293774335364,"5":0.017429783366908924,"6":0.010981833166679401,"7":-0.019849710020622757,"8":-0.09805699316343879,"9":-0.06579552074553204,"10":-0.018446474132036664,"11":0.0036792884676068623,"12":-0.04742797769590714,"13":0.011148156590152624,"14":-0.07038527570275711,"15":0.10974333466477587,"16":-0.01961279158106452,"17":-0.014810217867721881,"18":-0.03312911396295203,"19":-0.007101869133172168,"20":-0.0060154328196336815,"21":-0.05296912098921397,"22":-0.030146565443479628,"23":-0.01088970131203201,"24":-0.0807138886567012,"25":-0.013168707525236786,"26":-0.03417743492406635,"27":-0.00845139759083975,"28":0.04847326501104359,"29":0.02710826705261494,"30":-0.09225684272585881,"31":0.026494636982885497,"32":0.04438264451080855,"33":-0.033112253792813864,"34":-0.12686303424311682,"35":0.009839265175262705,"36":0.00216642012080399,"37":0.08106946466272488,"38":-0.011074076017184756,"39":-0.029199971372138086,"40":0.004458510400401476,"41":-0.007278734819385581,"42":-0.011795689324026927,"43":-0.04518193338133652,"44":0.020391180992183087,"45":-0.02972680935983133,"46":0.00790538808660644,"47":0.05090079693899382,"48":0.0023176721187510014,"49":-0.014870564781527044,"50":-0.0036581326639349085,"51":-0.029728069620840573,"52":-0.10982224128892507,"53":-0.0016370033550579097,"54":-0.05326944386085227,"55":0.028340373724936595,"56":-0.032360173644960424,"57":-0.004779053378113583,"58":-0.025502000039723114,"59":-0.020781313935696127}},{"sx":1,"sy":1,"depth":60,"w":{"0":-0.044531968826426564,"1":-0.0022207105843489124,"2":0.0010734927192931662,"3":-0.1866508240329695,"4":0.10049327510902457,"5":-0.12072157324201198,"6":0.02411040718636581,"7":0.24964772974501878,"8":0.05804774256854161,"9":-0.0840647728804681,"10":-0.023298445677820464,"11":-0.026975458411748202,"12":-0.2839487981413603,"13":-0.027117936943436075,"14":-0.5650070938985438,"15":-0.02983671821104073,"16":-0.04847700006009315,"17":-0.002488753165501913,"18":-0.027208460100968213,"19":-0.021547912938889118,"20":-0.027754990667392454,"21":0.23868888487694603,"22":0.044652670138770924,"23":-0.03394266062200764,"24":-0.10786171322795597,"25":-0.0268801091195504,"26":-0.032206931844001405,"27":0.05971222339166694,"28":-0.01294006164585952,"29":0.01394908979872634,"30":-0.0487619466989157,"31":0.004723989094499087,"32":-0.11614871047568066,"33":-0.06899515858895133,"34":0.020869456174947558,"35":0.027036855519189263,"36":0.02908240767924072,"37":-0.005079537125707491,"38":-0.009668865310679307,"39":0.0005385929438264207,"40":-0.12698432546467128,"41":-0.10436449214110528,"42":-0.022913716679668697,"43":-0.025056457915561575,"44":-0.00039739172868550807,"45":-0.3418469573378512,"46":-0.0172845386993101,"47":-0.08546171215318502,"48":0.13121091691111902,"49":-0.0072406774243101565,"50":-0.036694657747210896,"51":-0.04569449443274617,"52":-0.46526360219013707,"53":0.010242956344915814,"54":-0.2694938558600685,"55":-0.010454299964455177,"56":-0.04391923408549213,"57":-0.01034111899432883,"58":-0.3286717615958239,"59":-0.1767107935386754}},{"sx":1,"sy":1,"depth":60,"w":{"0":0.07043975994631617,"1":0.009585126310532321,"2":-0.11315825926790654,"3":-0.06791299789639213,"4":-0.05947089750193927,"5":-0.025557003864735722,"6":0.009264981008501535,"7":-0.012496805432401437,"8":-0.13566213879524863,"9":-0.0638947703918162,"10":-0.21477118379410307,"11":-0.04185255905639016,"12":-0.05235928450318793,"13":0.0784060032462754,"14":-0.10728138279513401,"15":-0.06376078083156063,"16":-0.056486699395656474,"17":0.013858297970728644,"18":-0.0016708080274501992,"19":0.013013813635914815,"20":0.006530678201667677,"21":-0.03174058458017536,"22":-0.21127935312888113,"23":0.02170430318455457,"24":-0.01144706354382928,"25":-0.009974843287986096,"26":0.00743304643618429,"27":0.15978990511925648,"28":-0.014505000735667004,"29":-0.017213821806018492,"30":-0.01365374200029029,"31":0.04349985351346283,"32":0.01159452938506335,"33":-0.06821994218505341,"34":0.10878762593226607,"35":0.006140005580934204,"36":0.005621437417625747,"37":0.03719151861510261,"38":-0.09691728769196165,"39":0.00019429054027403207,"40":-0.06367862395861935,"41":-0.1661109305423194,"42":-0.04414270354825051,"43":-0.023157562092431354,"44":0.0006316283954727673,"45":-0.07023594674776215,"46":-0.16284049936597228,"47":-0.02788227245727039,"48":-0.04471745049763591,"49":-0.04108025792544811,"50":-0.024305370888274423,"51":0.0752148206636066,"52":-0.27061318715795085,"53":-0.043818121436742255,"54":-0.0903526142465344,"55":0.047745247604984775,"56":-0.00909126895647774,"57":-0.061610067090205195,"58":-0.23988155737156736,"59":-0.012910991704838237}},{"sx":1,"sy":1,"depth":60,"w":{"0":-0.07584891388005895,"1":-0.008225983363562074,"2":-0.011266452621118134,"3":-0.016993762662802045,"4":-0.05434488146625988,"5":-0.000936974133649299,"6":-0.018514699049986715,"7":-0.0039360032771460305,"8":0.013439307533129772,"9":-0.13773953735581873,"10":-0.08258859173362426,"11":-0.013215440536351606,"12":-0.04526629406113869,"13":-0.01647330901012917,"14":-0.2197708889569337,"15":-0.06638651637553632,"16":0.005490508037812695,"17":-0.008360182481984882,"18":-0.035902125458847335,"19":-0.007789445106006283,"20":0.17855524791692964,"21":-0.09983491938424836,"22":0.023203893369808697,"23":0.0049353539637584055,"24":-0.0927903313550945,"25":0.00010000799079376641,"26":0.005705961772394982,"27":-0.028519497200721892,"28":-0.02397861585576449,"29":0.013464505694905468,"30":-0.006900547542966606,"31":0.0030107125454862152,"32":-0.07806032448014516,"33":-0.011787754647362573,"34":-0.08317686161701358,"35":-0.02417709937579176,"36":0.0166685677343458,"37":-0.04554706928042152,"38":-0.0045902668267161035,"39":0.003812462635439886,"40":-0.1567067394996794,"41":-0.04879030878098025,"42":-0.058783155350557406,"43":0.0671392026686401,"44":0.007322319100327443,"45":-0.000014659670562108832,"46":-0.02029439177849259,"47":0.02672278718134602,"48":0.08817666798762303,"49":-0.014150044666958872,"50":-0.02198214107337489,"51":-0.022778738818166357,"52":-0.15670611409772067,"53":0.0033599678889931987,"54":-0.0728031389062712,"55":0.0353791410902716,"56":0.02681765011961822,"57":-0.028834728464626893,"58":-0.16416725578170857,"59":-0.11102394759287548}},{"sx":1,"sy":1,"depth":60,"w":{"0":0.12222720983840044,"1":-0.013948921847889428,"2":-0.23004203543114707,"3":-0.08320942803983174,"4":-0.21762866417676655,"5":-0.10703983884943045,"6":0.012536490861906176,"7":-0.10509624800225528,"8":0.5332370617089487,"9":-0.006832404715450543,"10":-0.13193689828625663,"11":0.04628117431629848,"12":0.26119213583631173,"13":0.09222545594583206,"14":-1.3974075097872636,"15":-0.044681285116227966,"16":0.37800615734268944,"17":0.008549906408530183,"18":0.030747992223853805,"19":-0.014884315014819315,"20":0.4924916104081071,"21":-0.08309327227019418,"22":-0.07503578873297932,"23":-0.015008401696431972,"24":-0.6505732556653903,"25":0.003987673475625411,"26":-0.024366367386859725,"27":-0.03952268871603755,"28":0.48912710186220354,"29":0.014832208961804452,"30":0.08143140767927486,"31":0.016154309832672232,"32":-0.035291159159700394,"33":0.2294208658768581,"34":0.08098705855365924,"35":-0.021816431086636102,"36":0.04121134467714542,"37":-0.016968580205067436,"38":-0.004845415606080636,"39":0.006881260747332808,"40":-0.21948966528478045,"41":-0.5434762207453422,"42":-0.017095750535277694,"43":0.09419381764271773,"44":0.031001535462554117,"45":0.09017051310498175,"46":0.19946696398061525,"47":0.013025082814546538,"48":-0.0496488088349506,"49":0.010098038778733703,"50":0.2957313473054801,"51":0.006735294480543986,"52":-1.2307965623211008,"53":0.12805257962129352,"54":0.17469580927959394,"55":0.008151279126026974,"56":0.17806783209888433,"57":-0.014326357801402918,"58":-1.215557664600692,"59":1.0861700844044349}},{"sx":1,"sy":1,"depth":60,"w":{"0":-0.11804773383613383,"1":-0.007806824222639337,"2":-0.04944368509910902,"3":-0.04146903304697945,"4":-0.06161942640102855,"5":-0.05019579491127687,"6":-0.006912688469406816,"7":0.02619841029022395,"8":-0.027240831858355154,"9":-0.10295673585612175,"10":-0.04681932238329887,"11":-0.013012577457294295,"12":-0.15183613695022785,"13":-0.06391251334426198,"14":-0.2514658923511678,"15":0.008214985986203037,"16":-0.0968726109905559,"17":0.006342586010092798,"18":-0.01408417344217207,"19":0.015969743168855292,"20":-0.019151755261903228,"21":0.07792978597902547,"22":0.13032036817866754,"23":-0.005471778038726245,"24":-0.12690117211233637,"25":0.020128018171583835,"26":-0.07759302994554439,"27":-0.0005439764539685449,"28":0.005626379818617894,"29":0.017769160398455917,"30":-0.10029039891161169,"31":0.027569244807567936,"32":0.11483322329983946,"33":-0.10751676720003182,"34":-0.08662977849790862,"35":-0.021253315938082374,"36":0.01326802792565133,"37":0.018815615315773644,"38":-0.030215858408773007,"39":-0.025656394109113117,"40":-0.11236240671761742,"41":0.011558852641395646,"42":0.003666712894569321,"43":-0.03339394073994582,"44":-0.0060436978270690675,"45":-0.10439000032560893,"46":-0.03402656089130834,"47":-0.022028306236688527,"48":-0.0493033107390453,"49":0.008960841735417282,"50":-0.06632275154451853,"51":-0.015265147676935832,"52":-0.21826876095448758,"53":-0.04334959107320532,"54":-0.06425990260677869,"55":0.007069363340651283,"56":-0.02279206553647702,"57":-0.03848133319455678,"58":-0.11339025297663424,"59":-0.05449540400883657}},{"sx":1,"sy":1,"depth":60,"w":{"0":-0.125756092598626,"1":-0.026649809819367785,"2":-0.04406987010261511,"3":-0.025678429736914914,"4":-0.000417687818394029,"5":-0.048136108943423565,"6":-0.011645020018798649,"7":-0.01704872964152823,"8":-0.04112378164529387,"9":-0.09312654448727928,"10":-0.07449999682707101,"11":0.003971729252353129,"12":-0.18216174294240015,"13":-0.08613803235684557,"14":-0.12477012404033268,"15":0.01441567034385081,"16":-0.023036206049194492,"17":-0.024441111644907598,"18":-0.02143562717350641,"19":0.02692636619618895,"20":0.006434659901009411,"21":0.0035924966076932995,"22":0.016871321107051186,"23":-0.017532184367246153,"24":-0.1501906798570788,"25":-0.03214063939351275,"26":0.01909619215747643,"27":-0.016485570263305525,"28":0.02425915294635717,"29":-0.016043659923185252,"30":0.040759136747396445,"31":-0.012295380939500986,"32":-0.03199181408083445,"33":0.007847019102020814,"34":0.046158396805077516,"35":0.017491109711041945,"36":-0.016078756347808993,"37":-0.0010414005586692953,"38":-0.009166271460980892,"39":-0.020534792925008254,"40":-0.021389270685183762,"41":-0.044705795799839965,"42":0.021946580475653683,"43":-0.027949386647503717,"44":-0.0008518888861451286,"45":-0.029342617790850557,"46":-0.06508761069212304,"47":-0.014627095880489749,"48":-0.06120127910999305,"49":0.004855557591995657,"50":-0.018127225746971207,"51":-0.0031414202137708697,"52":-0.05458877067946835,"53":0.034852516531880984,"54":-0.018516070259136787,"55":-0.03956465070195284,"56":-0.0070895878853675,"57":-0.0061831953846533515,"58":-0.17464237950521422,"59":-0.01599630835410288}},{"sx":1,"sy":1,"depth":60,"w":{"0":-0.09422196230927075,"1":0.010629216235037979,"2":-0.0835909849834524,"3":-0.07791592255480609,"4":-0.10591633811941918,"5":-0.018197559516580183,"6":-0.025647720724858502,"7":-0.19140907002218543,"8":-0.1760009323840235,"9":0.19643896519146836,"10":0.08496492986416954,"11":-0.006677165639146692,"12":-0.10899002907690104,"13":-0.07442324151936848,"14":-0.3969412912377974,"15":0.008950262110468853,"16":0.03604188341136537,"17":-0.007641673944336775,"18":-0.053621775839080586,"19":-0.010100548961111842,"20":-0.0034787263940851223,"21":-0.09662012820703005,"22":-0.058253520714862214,"23":-0.03185226080084961,"24":-0.13696784134876527,"25":0.007173218080075108,"26":-0.028006091196621886,"27":0.04790842761500004,"28":-0.005205791949599317,"29":0.0038090618456176535,"30":-0.13046509617146607,"31":-0.010647454743112558,"32":-0.058674942553519106,"33":0.04475920603789105,"34":-0.07569404792041803,"35":0.03428198691851803,"36":-0.015910096109646943,"37":0.007201621371644928,"38":-0.023271964456147817,"39":-0.029758623786475216,"40":0.008905659292561168,"41":-0.1486505230253965,"42":-0.013231680677204843,"43":-0.03764595411759836,"44":0.016348868105674826,"45":-0.13443285482320902,"46":-0.047535361392146584,"47":-0.038378478705146546,"48":0.1803115215114582,"49":-0.03656315701475106,"50":0.04613334575255366,"51":-0.023034344508466507,"52":-0.21871069109323774,"53":0.006868549692874014,"54":-0.07972945529125534,"55":-0.0014332252679965522,"56":-0.15834133124325098,"57":0.08904748256692514,"58":-0.4031427176344447,"59":-0.16537162343119377}},{"sx":1,"sy":1,"depth":60,"w":{"0":-0.05414133863798393,"1":-0.009360058158254664,"2":-0.025618763091285624,"3":-0.09344649447463878,"4":-0.05389562619693141,"5":-0.07206285417708463,"6":-0.013632635649696185,"7":-0.05383828430673036,"8":0.12100615758255352,"9":-0.07101423952593482,"10":0.038561534457349673,"11":-0.005642654673557119,"12":-0.07532600089580355,"13":-0.020087860405556223,"14":-0.1636310742525796,"15":0.012155376862039333,"16":-0.04816361934873802,"17":-0.006842723725840129,"18":0.01893360648469475,"19":-0.015080458320628511,"20":-0.0028508601977983478,"21":-0.022753217631503488,"22":-0.016441145919961483,"23":-0.014385401251374988,"24":-0.11043838578435183,"25":0.05289738584097148,"26":-0.025984027599449844,"27":-0.021333820058748305,"28":0.013308116114417849,"29":-0.012966367166619365,"30":-0.04765174265111379,"31":0.022194604862780166,"32":-0.03051020809380789,"33":0.05712174289466676,"34":0.035945825250864816,"35":0.00910686985416263,"36":0.01890977913234593,"37":-0.017054718268771116,"38":-0.025838183919829005,"39":-0.01852239340739256,"40":-0.04380127536968492,"41":-0.04036477035996078,"42":0.033423295673249115,"43":-0.033154931999471525,"44":-0.02428406101223959,"45":-0.044665148162207,"46":-0.04666813689872211,"47":-0.007950118252761896,"48":-0.06947392474150449,"49":-0.032545950757717254,"50":-0.02294900704284082,"51":0.03329241250796889,"52":-0.14565109707664148,"53":0.0159968143720098,"54":-0.00822773300106582,"55":0.01841200025265114,"56":-0.015875313356959447,"57":-0.09928544217553627,"58":-0.11957816480235073,"59":-0.050784817897222785}},{"sx":1,"sy":1,"depth":60,"w":{"0":-0.1844076466843183,"1":-0.010354830166156353,"2":-0.23052736283944408,"3":-0.12590079260194412,"4":-0.1168540246343675,"5":0.12254768975983679,"6":-0.0016658885209346064,"7":-0.02055533903708185,"8":0.057698333610263365,"9":-0.07206014822777454,"10":-0.09939234418045549,"11":-0.019866150918345076,"12":0.020138396324680796,"13":-0.12226219114940114,"14":-0.500580192580901,"15":-0.004710186988815121,"16":-0.01403084513653486,"17":-0.010163009984378215,"18":0.0013605924098342033,"19":0.0053401389232585845,"20":0.03372829077405579,"21":-0.022209691631094552,"22":0.1502947657591221,"23":0.03895953303718875,"24":-0.31249093653788834,"25":0.06586414733764727,"26":-0.06667878675026567,"27":-0.03573605416376774,"28":0.009014536085632033,"29":0.021671824199628303,"30":-0.1454690017761238,"31":-0.007580152630945817,"32":0.036811204439268067,"33":-0.16570570023118877,"34":-0.11996556648169988,"35":0.0020909949762280555,"36":0.0035878164036596783,"37":-0.01642962784559628,"38":0.07219795179513225,"39":-0.020285721803134243,"40":0.35408856286938684,"41":0.15163030505809394,"42":0.011524311193205228,"43":0.08536904543075764,"44":-0.0008603105410395584,"45":-0.19048179260083864,"46":-0.03907990632344592,"47":-0.1679484353133283,"48":-0.20141387353283596,"49":0.0074708316012908884,"50":-0.05116885685813103,"51":0.0655668155973714,"52":-0.6631097883860347,"53":-0.00542342573904543,"54":0.19051850782561855,"55":0.01241839107921421,"56":-0.09248673566011519,"57":-0.3448576972379264,"58":-0.5230434716156724,"59":-0.01971477923905573}},{"sx":1,"sy":1,"depth":60,"w":{"0":0.034719178251711905,"1":-0.024624878551112454,"2":-0.14965080427668634,"3":-0.13272499731955745,"4":-0.06250188132710044,"5":-0.23781613371576205,"6":0.012031380013795836,"7":-0.14447856466750392,"8":0.2577541939689726,"9":-0.2428341367523918,"10":-0.10648349808122991,"11":0.03532584023516657,"12":0.28952814006142136,"13":0.21276801390559388,"14":-0.4761912093297011,"15":0.036570897204951616,"16":0.05767877856630463,"17":0.019409568508358618,"18":-0.019872287280020273,"19":0.018779299975855385,"20":0.1576156428237623,"21":-0.11542611856081107,"22":-0.2305487098104359,"23":-0.0018264452638913505,"24":-0.32787762447035723,"25":0.012370679679763382,"26":-0.14048296921526104,"27":0.036480640374284785,"28":0.13629623741578406,"29":-0.0008509273745751191,"30":-0.09193932672219797,"31":-0.0014699173694390287,"32":-0.046293055280760685,"33":0.12633527776026746,"34":-0.10564791019581478,"35":0.007754739131848547,"36":-0.009267007659154976,"37":0.0360707330556618,"38":0.09684753511465434,"39":-0.006933523635582789,"40":-0.157917287737603,"41":-0.08869640782137826,"42":0.09615585852479086,"43":-0.033994441239814016,"44":0.027226587470345617,"45":0.10354956793803188,"46":0.08035497650017917,"47":-0.05352055978222782,"48":-0.15348097401958688,"49":-0.025575775528216806,"50":0.0572029920292313,"51":0.02889559387790108,"52":-0.4771356613699259,"53":-0.01229321953160472,"54":0.08744039886119452,"55":0.029454916014841348,"56":0.023330622314331292,"57":0.03259906265927098,"58":-0.43578894589407624,"59":0.3738947996659659}},{"sx":1,"sy":1,"depth":60,"w":{"0":-0.026481688750395332,"1":-0.018354665580626737,"2":-0.017083020655416024,"3":-0.0008821489569672207,"4":-0.05010922319126356,"5":-0.05939621270961247,"6":0.007826234825528014,"7":0.003340887071539795,"8":-0.07596246713320773,"9":-0.00010746185939562912,"10":-0.10559689341155236,"11":-0.008081950107390011,"12":-0.03838907403544142,"13":0.0025822808947796186,"14":-0.07762891518543227,"15":0.050138435167513186,"16":-0.039066210123239666,"17":0.009787805371429646,"18":-0.03680044923890688,"19":0.0045734472577901985,"20":-0.007503558936939443,"21":-0.004349320071762037,"22":-0.038544649073462195,"23":0.004338074067721048,"24":-0.03771532980263076,"25":-0.008750845403253053,"26":-0.015182981145995731,"27":-0.03835309212864598,"28":0.014051845517302056,"29":0.017686568022175053,"30":-0.046719200447617716,"31":0.0027330178955660062,"32":0.013357912495397044,"33":0.00816067900333286,"34":-0.012218015192149122,"35":-0.004456254714218821,"36":-0.03245628377081603,"37":0.08351290305418985,"38":0.0037183263112366347,"39":0.007443902471975136,"40":0.008206011666244298,"41":-0.0830036158901483,"42":0.0016995409150953001,"43":-0.01256730233042653,"44":-0.010566463983942124,"45":-0.0254134118592181,"46":-0.03560263800395233,"47":-0.0025644882822833076,"48":-0.02232823855095453,"49":0.02024545319699984,"50":-0.04828766070609198,"51":-0.018809635096813965,"52":-0.10428197140535707,"53":-0.003808069176727044,"54":0.006100702720451088,"55":-0.010853517538162735,"56":-0.04409837240886135,"57":-0.03663658841031252,"58":-0.11532836665478685,"59":-0.011016211371869537}},{"sx":1,"sy":1,"depth":60,"w":{"0":-0.05964109827920505,"1":0.015109879252147344,"2":-0.02450843327315233,"3":0.009515695584613008,"4":-0.031110944910311068,"5":-0.014013290690710771,"6":0.0003638775223210317,"7":-0.04074893149158897,"8":-0.019742506496340347,"9":-0.08344276749717632,"10":-0.05486608278172731,"11":0.014213834380700813,"12":-0.0008872579039621979,"13":0.0918889247486251,"14":-0.19606775144273308,"15":-0.03252192156546341,"16":-0.04112381579767688,"17":0.0033398735220372187,"18":0.08438335698617247,"19":0.012907900759067129,"20":-0.02523930499571317,"21":0.0009539568104428936,"22":0.02457571084109371,"23":-0.0031257330472284827,"24":-0.052346512847089285,"25":0.033629033515561596,"26":-0.07876643653107232,"27":-0.0389514110517776,"28":0.03720718974973552,"29":0.015045794070540098,"30":0.00844322618702562,"31":0.026601389779576816,"32":0.01579935265614025,"33":-0.03162681050983251,"34":-0.044554677499396594,"35":0.018481973645166634,"36":-0.0038616171036915913,"37":-0.016476702802699934,"38":-0.005850393051797636,"39":-0.03287702290580677,"40":-0.0370665121432011,"41":-0.06989392945133178,"42":-0.0005409330212524085,"43":-0.019581094560043706,"44":0.03355542550929434,"45":0.17823139117556164,"46":-0.0055696170441344,"47":-0.004157271762396806,"48":-0.054833863141955416,"49":-0.01763519803887996,"50":0.012645856200305006,"51":-0.0059564542250781765,"52":-0.18311362294064945,"53":0.031017653631762118,"54":-0.012016382619207514,"55":-0.006753296493422133,"56":-0.0609505514700793,"57":-0.002617144232912001,"58":-0.19635723648470169,"59":0.007234215063881848}},{"sx":1,"sy":1,"depth":60,"w":{"0":-0.031719660568347297,"1":0.006030071469254474,"2":0.0025763077941356543,"3":-0.03628224958078857,"4":-0.015587519412134331,"5":-0.060179184822898,"6":0.0075794982745086975,"7":-0.008247662613762502,"8":0.05471809717959663,"9":-0.09443631907663269,"10":0.18619959983553155,"11":0.030141784275756395,"12":-0.08697379970105534,"13":-0.024280909738811415,"14":-0.1827620396833389,"15":-0.00032952021208007115,"16":0.03541756766794875,"17":0.005424818028801551,"18":0.0005124434135360684,"19":-0.006556048554037832,"20":0.04487046634588765,"21":-0.0018543198603738346,"22":-0.06357386186747573,"23":-0.018544295739228916,"24":-0.10331768744467755,"25":-0.02174278606686131,"26":-0.02017044840259213,"27":0.0027621011541506565,"28":0.013884314227737555,"29":-0.029627228558586145,"30":-0.03403245920164932,"31":0.00560807207250347,"32":0.018005848527520435,"33":-0.10828960597800956,"34":-0.04423324785660365,"35":0.03647375386009079,"36":-0.006358260502397676,"37":-0.026357620257375935,"38":-0.03870500429832288,"39":0.009936065190829924,"40":-0.0033023856201192317,"41":-0.07005858279247054,"42":-0.0832606744863874,"43":-0.01607688821926507,"44":0.0016290310062053192,"45":-0.004796156698178603,"46":-0.034196777309868635,"47":-0.033006841198991,"48":-0.012330361528017857,"49":0.0033419823606412077,"50":-0.017263188212013964,"51":-0.007453397379880375,"52":-0.20902321846354396,"53":-0.019244043138805126,"54":0.04079759368518189,"55":0.017372948081469466,"56":-0.020655413506914078,"57":-0.011137426676569556,"58":-0.1941188835087002,"59":-0.049402940290094344}},{"sx":1,"sy":1,"depth":60,"w":{"0":-0.005602015650870985,"1":-0.026817004822746036,"2":0.11900745077325843,"3":-0.03007441499649298,"4":-0.011175675949844728,"5":-0.01202829135010229,"6":-0.01645979902495733,"7":-0.013359398464710775,"8":-0.11760982466907294,"9":-0.1397154760980944,"10":0.024057193067456538,"11":0.03593725060551218,"12":-0.1337686095629956,"13":-0.08551487063755098,"14":-0.10096118838432601,"15":-0.011713162578975396,"16":-0.07489580609933368,"17":0.014960781816057814,"18":-0.022736719069667607,"19":0.013967214329010056,"20":-0.18176203884999642,"21":-0.0961839183793463,"22":-0.11297825598296024,"23":0.006268014453297037,"24":-0.19579355562497913,"25":0.0016125300705759425,"26":-0.014393106795887286,"27":0.08263429074273378,"28":0.021536365802382742,"29":0.009697152638345799,"30":-0.17371684086465936,"31":-0.00941510598510318,"32":-0.061003251280001045,"33":-0.05140029128563589,"34":-0.22597321036464282,"35":-0.020883517421497293,"36":0.001545869013770173,"37":-0.0025787600255089554,"38":-0.012707285112822701,"39":0.017249902462434206,"40":-0.12738621580767923,"41":-0.15418144970887013,"42":-0.06524894512946769,"43":-0.06985179081980909,"44":0.00572239155546417,"45":-0.09301661619028694,"46":0.02375044798782751,"47":-0.17157374710839576,"48":0.04712506415459597,"49":-0.0074055950258203095,"50":-0.08440446304196424,"51":-0.07043083153993872,"52":-0.2604013066422567,"53":-0.013701851439313628,"54":-0.08927734164913258,"55":-0.014848128571529522,"56":0.04236729905686073,"57":0.013434534134349736,"58":-0.26372155502162664,"59":-0.04341754882711933}},{"sx":1,"sy":1,"depth":60,"w":{"0":-0.018435978004193235,"1":-0.023809052861774645,"2":-0.0339596558290762,"3":0.0051756508425416315,"4":-0.03729759725708352,"5":-0.07885016880325985,"6":0.023133718082053525,"7":-0.004601384721320741,"8":-0.07993919932085589,"9":-0.003988651481278892,"10":-0.07358532930809082,"11":-0.015985058530687598,"12":-0.06623303111626463,"13":0.01748090932176164,"14":-0.057627880280538404,"15":0.06335833575009224,"16":-0.04200673895683429,"17":-0.006294672324664093,"18":0.017214898578090585,"19":0.00007637208401141028,"20":-0.001542776577670731,"21":-0.04836211167946295,"22":-0.07073328874574725,"23":-0.009132476567084954,"24":-0.0414600748697128,"25":0.003731424759829476,"26":-0.04773222889830854,"27":-0.05238246323452184,"28":0.013629686746896248,"29":0.030214078672196918,"30":-0.07127167617338577,"31":-0.0033209937333613135,"32":0.023212685544068065,"33":-0.012977006436294753,"34":0.0013812886521655666,"35":-0.033458242592624504,"36":-0.011359998228600371,"37":0.08219136048912766,"38":-0.04421608452904904,"39":-0.01546821667501399,"40":-0.0076246413309281665,"41":-0.099024677317201,"42":0.010076077472457071,"43":0.013659795021365042,"44":0.015418447478786694,"45":-0.01261502867784276,"46":-0.05379022484010808,"47":-0.03649400901348911,"48":-0.03412941891031682,"49":-0.023454565520645124,"50":-0.026622087309983684,"51":-0.02606990328830894,"52":-0.12079869143337348,"53":-0.01805240357774827,"54":-0.009887855673743583,"55":-0.016687759827240026,"56":0.031870327267189476,"57":-0.001900557850924553,"58":-0.12254422871844367,"59":-0.027598926931960126}},{"sx":1,"sy":1,"depth":60,"w":{"0":-0.05272542464401596,"1":0.003510511008125838,"2":0.017912823949020443,"3":-0.04427726330536352,"4":-0.08034200910808703,"5":-0.12587525311530498,"6":-0.005761407069548844,"7":-0.061498389526453895,"8":-0.005910999330763506,"9":-0.10904000602335319,"10":-0.06245191003564674,"11":-0.012364483538091452,"12":-0.05331857956749172,"13":-0.056728870408877925,"14":-0.2342627986825086,"15":-0.02642174226359932,"16":-0.032655818308081626,"17":-0.00589692967316587,"18":-0.00836140896423163,"19":-0.006681304616700654,"20":-0.02339607008040041,"21":-0.0835770080652911,"22":-0.020690766560698213,"23":0.0014412976747813673,"24":-0.07331616519596194,"25":-0.0169729078597518,"26":-0.03991648274484175,"27":0.01745670571520126,"28":-0.01741159428690911,"29":-0.007653475536424529,"30":-0.11591779696206128,"31":0.012102986510127466,"32":0.0032357623436309263,"33":-0.015151513693518425,"34":0.10535479224024516,"35":-0.0203133940572296,"36":-0.005263524020189621,"37":0.032957653893410974,"38":-0.05060945401971646,"39":-0.0033910712863196107,"40":-0.05274292814698645,"41":-0.17333049584796775,"42":0.026836872983171414,"43":-0.039240983940432364,"44":-0.0216429389700501,"45":0.04981751910309289,"46":-0.059113639136960536,"47":-0.0012583890872800267,"48":-0.04037590625973027,"49":-0.009596397123800665,"50":-0.010045470577026903,"51":-0.028256474801330183,"52":-0.29534180777549013,"53":0.018239874575947803,"54":-0.013736370575819485,"55":-0.04102996989701211,"56":-0.02726218543627661,"57":-0.009049665896220414,"58":-0.21931100165503284,"59":0.05426845606193887}},{"sx":1,"sy":1,"depth":60,"w":{"0":0.009288091456303597,"1":-0.004120306397821917,"2":-0.04859858079727245,"3":-0.07160231309564125,"4":-0.09956156634154295,"5":-0.08805855958725418,"6":-0.017356102554156403,"7":-0.04066261738246803,"8":-0.07116970605657216,"9":0.014206797023646365,"10":-0.04072450911296059,"11":0.022072980621391687,"12":-0.012294663367666164,"13":-0.011513379511096222,"14":-0.2519859430166464,"15":0.016468607837357176,"16":0.040594741670071224,"17":-0.01078232244009118,"18":-0.011849595739292253,"19":0.0029785881128406634,"20":-0.023414803418266072,"21":-0.05797865351006898,"22":-0.005271796695815762,"23":0.050721684868324686,"24":-0.01911435632193601,"25":0.0012274179196754191,"26":0.005463665252042965,"27":0.017544156579421148,"28":0.007766277425866046,"29":0.0019301262973681428,"30":-0.012820840689001092,"31":-0.03162539834799566,"32":0.01972412170340997,"33":-0.05344492597825026,"34":-0.052278646640032365,"35":-0.018249052328398296,"36":-0.004268407440501722,"37":-0.008725693586470011,"38":-0.03841700477030677,"39":-0.03725678769945789,"40":0.009887879680485835,"41":-0.039707352341207536,"42":-0.011574653979697126,"43":0.00035434950015364,"44":0.037278204720439787,"45":-0.0537997048431287,"46":0.0022331478713651072,"47":-0.043584272020902454,"48":0.14924942263715324,"49":0.017163443127374816,"50":0.027353560480746487,"51":-0.03546473943777955,"52":-0.13560337984701326,"53":-0.019727688537636824,"54":-0.04544149418255486,"55":0.01733395533437064,"56":-0.004070008685219288,"57":-0.00001838155952282516,"58":-0.2026045952839372,"59":-0.054077598265286665}},{"sx":1,"sy":1,"depth":60,"w":{"0":-0.37727777760523806,"1":0.00722874972484331,"2":-0.045100395966292985,"3":0.1298868427686343,"4":-0.014319560501697894,"5":0.40248399930483353,"6":0.019441514071235927,"7":-0.05115114970353124,"8":-0.04661978036152035,"9":-0.24849676075140792,"10":0.18820915122063367,"11":-0.03210957881632044,"12":-0.25532314712434356,"13":-0.03056125104044995,"14":-0.8954051175503744,"15":-0.0009762922777547886,"16":-0.03054534197281442,"17":-0.016280911892884532,"18":-0.02558952759754975,"19":-0.004623835138473877,"20":0.03194749424445117,"21":-0.3546902900321141,"22":0.036792681248407504,"23":0.01174288710428768,"24":-0.4959063793638629,"25":0.008704203709111043,"26":-0.02963265931960464,"27":0.05331387287801622,"28":-0.0051127670516848385,"29":0.06900565605517904,"30":0.02461228178235887,"31":-0.0008056343609954746,"32":-0.009131739127437057,"33":0.3628359618896953,"34":0.16425693266739838,"35":0.011910500846289253,"36":-0.009582296056380835,"37":-0.042173426241310825,"38":0.02014813034434632,"39":-0.002472091278396378,"40":0.27909781448449406,"41":-0.49553069654489257,"42":-0.005122020171848358,"43":-0.007881888017066777,"44":-0.02400014540422841,"45":-0.07005828228361878,"46":0.022872480246333083,"47":0.16720246006046086,"48":-0.12464275278701292,"49":0.02135740175705229,"50":-0.008837110188493019,"51":0.12429031286220761,"52":-0.6754818160918287,"53":-0.015323318175425382,"54":0.42379157310923044,"55":-0.02045311020396118,"56":-0.018195839285492912,"57":0.08540880720631547,"58":-0.7669523799714294,"59":-0.16429269900365576}},{"sx":1,"sy":1,"depth":60,"w":{"0":0.02144020621518622,"1":0.017935994815679562,"2":-0.001826074294441143,"3":-0.1399135401326003,"4":0.08063722717558013,"5":-0.043437828971393304,"6":0.005860054635564155,"7":0.18106965426297159,"8":-0.05071321160680053,"9":-0.14906144017192502,"10":-0.010484096120106666,"11":0.019483604231116905,"12":-0.046771595619103344,"13":-0.03811621341875556,"14":-0.24063409363397478,"15":-0.014671527980626944,"16":-0.010235096010027221,"17":0.014687865312461383,"18":0.007363774911430688,"19":0.010211295516810324,"20":0.019715508633593438,"21":-0.042087360333478215,"22":0.2940181003777078,"23":-0.0016415638169722615,"24":-0.003863696084735863,"25":-0.007660743696089136,"26":0.2458706831490939,"27":-0.034028414410291814,"28":0.008406498125626454,"29":-0.021968762852971398,"30":-0.028967367269142622,"31":0.023125107349457014,"32":0.034976966826042344,"33":-0.055484174330772545,"34":-0.04933549449141079,"35":-0.030578256444002493,"36":0.02464408785113021,"37":-0.004438832646450433,"38":0.01893848479371559,"39":0.034642139616637334,"40":-0.1243650401647634,"41":-0.040802366000437025,"42":0.011944092842528273,"43":-0.0049768257327690085,"44":0.027236159278733123,"45":-0.019672601078586417,"46":-0.02721755112386456,"47":-0.026277652713318073,"48":0.12179653138220894,"49":0.006915558796609056,"50":0.027882066458309658,"51":-0.011945695068745215,"52":-0.2498565806744754,"53":-0.04258008494999622,"54":-0.05401906981239818,"55":-0.019514977484497004,"56":-0.035824112000238266,"57":-0.02837956525271355,"58":-0.3307845210787573,"59":-0.04325305864726201}},{"sx":1,"sy":1,"depth":60,"w":{"0":0.041484755749609324,"1":0.004047935603151905,"2":-0.214632674124562,"3":-0.2356070851522722,"4":-0.10249635375110488,"5":-0.24155105803839555,"6":0.011647030650139275,"7":-0.018213647270353225,"8":0.37025158863941937,"9":0.4819034908825434,"10":-0.03236286776531098,"11":0.011985299121986549,"12":0.22642221503626028,"13":-0.06691129303005838,"14":-0.6133189513841841,"15":-0.05967582325794914,"16":0.359897836081614,"17":0.0032929925978261955,"18":-0.04362557690192325,"19":-0.0009139183985995598,"20":-0.0637998917303518,"21":-0.002820846774759586,"22":-0.09835600567761763,"23":-0.014085207385800946,"24":-0.35925371662047606,"25":0.03621425559663919,"26":-0.16092944602997947,"27":0.09077922835109155,"28":0.14485945507032275,"29":0.012589266985045752,"30":-0.16690355807302826,"31":0.022522153473734815,"32":0.004121011626200811,"33":-0.1491523237667406,"34":-0.005640816326186391,"35":-0.029595519583977516,"36":-0.005311933634007855,"37":-0.002316852604989744,"38":-0.013491961223479482,"39":0.010142427433874873,"40":-0.09072793118179308,"41":-0.22814064163914674,"42":-0.0077275548535592365,"43":-0.2152627482258792,"44":-0.011467070834720115,"45":0.12637191392044594,"46":-0.01141183297386699,"47":-0.038054726674981575,"48":-0.27808217786080713,"49":-0.044565624547511506,"50":0.2090663874760723,"51":-0.03866757954788345,"52":-0.8181682894321423,"53":0.033256721966426074,"54":0.06930893386055012,"55":-0.041745061461806926,"56":-0.007878563699892463,"57":0.13846998332233781,"58":-0.7846493621041973,"59":0.11818280051609031}},{"sx":1,"sy":1,"depth":60,"w":{"0":-0.047970642439233435,"1":0.01814797643756229,"2":-0.019361981544472183,"3":-0.04216850205522708,"4":-0.0033326354593251452,"5":-0.022477073460329785,"6":-0.00704135433979381,"7":-0.012104523378853144,"8":-0.1629525672983193,"9":0.04247662342971921,"10":-0.07319737973676048,"11":0.023989502644662767,"12":-0.03128864725216947,"13":-0.042847611469005,"14":-0.1341120330023835,"15":0.022800758056694338,"16":-0.08722361878728788,"17":0.02427135304539566,"18":0.01676530364344438,"19":-0.03455869225279444,"20":-0.01848012427125155,"21":-0.032952980940449884,"22":-0.18448690268707935,"23":0.02794503086555435,"24":-0.1355983603450766,"25":0.005635463879357341,"26":0.09420734856433868,"27":-0.04369435539334709,"28":0.012942353508948031,"29":-0.0005851035335200087,"30":-0.041988877883277716,"31":0.008759320977673948,"32":0.012425133869031253,"33":0.007460128410361011,"34":-0.13246956755314862,"35":0.013872181675574469,"36":-0.012848961906000069,"37":0.04373670428921057,"38":-0.015084285025285587,"39":-0.0134424514984127,"40":-0.12376967808469413,"41":-0.03735667026748172,"42":-0.012090671716733776,"43":0.00986407288715381,"44":0.005311168821801491,"45":-0.015456275331311177,"46":-0.0441661081385293,"47":0.0484048771608287,"48":-0.07828121591467306,"49":-0.04269290466686581,"50":0.00427250960715533,"51":0.04823049984414616,"52":-0.17529239459156054,"53":0.029796987127488978,"54":-0.01340202639888287,"55":-0.017982570343394767,"56":-0.005328292793269188,"57":0.046302114216124464,"58":-0.23603766492627792,"59":-0.06434695127983785}}],"biases":{"sx":1,"sy":1,"depth":80,"w":{"0":0.23841006165153097,"1":0.27948386380660306,"2":0.16539978032455163,"3":0.18784173251704653,"4":0.03681640209617636,"5":0.17414315084564355,"6":0.0012908522154797806,"7":0.2808969791445887,"8":0.4831295564510285,"9":-0.011313183715353807,"10":0.19184730533733854,"11":0.16472170221881333,"12":0.12941621771853046,"13":0.07602917574490242,"14":0.08861853166719101,"15":0.06893135102787086,"16":0.21280773799681493,"17":0.04274715580157538,"18":0.17611386928831105,"19":0.0029283014560862494,"20":0.1465797328735802,"21":0.14823731193657683,"22":0.22383602577000597,"23":0.07528324184966538,"24":0.14267060697556735,"25":-0.017327216170018974,"26":0.09474279075927433,"27":0.10255658184991774,"28":0.03200759583633959,"29":0.12457004826840667,"30":0.578471961333867,"31":0.028408272587912866,"32":0.04726686320303838,"33":0.19637319966649147,"34":0.17667504199762546,"35":0.03591094101657034,"36":0.18042567728981213,"37":0.07958430248330793,"38":0.1260812212335976,"39":0.0856868666828663,"40":0.07550871494858252,"41":0.09590098114176483,"42":0.1832746787163799,"43":0.3046926124880114,"44":0.1131054691621231,"45":0.03488090615048607,"46":0.03400101647882983,"47":0.3538256606299681,"48":0.3017396105077946,"49":0.264027718440516,"50":0.1311880534468555,"51":0.14166592886702545,"52":0.09119120149097648,"53":0.0737880495837726,"54":0.04169877216201189,"55":0.019010173697130293,"56":0.01704385339660682,"57":0.22495182326509602,"58":0.05185609441377003,"59":0.1678773178802468,"60":0.12839751995289544,"61":0.07222729898662082,"62":0.5495377610325345,"63":0.07352215280664477,"64":0.18091360456894837,"65":0.2307921399879816,"66":0.043593359548829175,"67":0.462080016986241,"68":0.39648268764899824,"69":0.18313461460522928,"70":0.07580243935374495,"71":0.030237902304404218,"72":0.13581471451834573,"73":0.14189145573237297,"74":0.14992361657864822,"75":0.15340964076922914,"76":0.08333410166924865,"77":0.13690528597479176,"78":0.44112698057153504,"79":0.13124467580219823}}},{"out_depth":80,"out_sx":1,"out_sy":1,"layer_type":"relu"},{"out_depth":8,"out_sx":1,"out_sy":1,"layer_type":"fc","num_inputs":80,"l1_decay_mul":0,"l2_decay_mul":1,"filters":[{"sx":1,"sy":1,"depth":80,"w":{"0":-0.24546038216133317,"1":-0.02431796679721147,"2":0.07971342998193558,"3":-0.021252008874284297,"4":0.030123178642289333,"5":0.03484018961749882,"6":-0.07616419821889582,"7":-0.16244790180668003,"8":-0.022220853862402745,"9":0.034140513140574924,"10":-0.30715256349527537,"11":0.07462173264199586,"12":-0.004423775324226124,"13":-0.1357432576899471,"14":-0.13838720778378105,"15":-0.01472315778325639,"16":0.049440750219178736,"17":0.03429927903869961,"18":-0.545827159387887,"19":0.021822534791470307,"20":-0.19586495953930594,"21":-0.04788519811613818,"22":0.0981927832864604,"23":0.004022148505867476,"24":-0.0714581611560916,"25":0.043383947194420625,"26":0.03588738155400295,"27":0.028648330014525283,"28":-0.07467247732023141,"29":0.017686880463944073,"30":-0.22053973718395664,"31":-0.11732089778625715,"32":-0.08680566765048821,"33":0.031763678322384484,"34":-1.217148446132308,"35":-0.06472117103457142,"36":0.02518978415588308,"37":-0.14874292026183336,"38":0.019776146015538877,"39":0.029979649755228988,"40":0.0649908568779754,"41":-0.005517958300172828,"42":-0.10284265883087663,"43":-0.017536606221170203,"44":-0.06945437588513788,"45":-0.021465746436528862,"46":0.05773294978722045,"47":-0.06373085391082821,"48":-0.03512440508551575,"49":-0.4118723025410555,"50":-0.35309957849984547,"51":0.02361327570186588,"52":0.023637638491528664,"53":0.03525807208419184,"54":0.00989136932995905,"55":-0.04395786385890179,"56":0.006062092385205073,"57":0.021361744676924976,"58":0.009702137076795533,"59":0.006946742592926329,"60":-0.040432503072885484,"61":-0.221400164485272,"62":-1.3937312711563565,"63":0.0364015583312511,"64":0.0016518287154527749,"65":-0.03573560034239097,"66":-0.07921977649912385,"67":0.09082482026267934,"68":-0.6285875404640185,"69":0.007939721476289869,"70":-0.075399054656024,"71":-0.21761727308707743,"72":-0.034008036310970116,"73":0.03293088389863687,"74":-0.035680195584989575,"75":0.0698941613017587,"76":0.034202718133787814,"77":-0.38988224293402424,"78":-0.17507582276985065,"79":0.0007924142960523533}},{"sx":1,"sy":1,"depth":80,"w":{"0":-0.028793287639904342,"1":-0.11971709443128452,"2":-0.00816968431363815,"3":-0.3301979691656779,"4":0.037819951626710306,"5":-0.07974570158338642,"6":-0.029611336161604506,"7":0.017869007913292857,"8":-0.3200135161459995,"9":-0.010896120486762953,"10":-0.1075440198511921,"11":-0.34290958092329077,"12":0.005866772656729859,"13":0.018164894646469185,"14":-0.21929937620900952,"15":-0.513428579584803,"16":0.032172696652760256,"17":0.013602119867388168,"18":0.006973828080748028,"19":-0.027792508072160823,"20":-0.17761430196157657,"21":-0.13740164453799134,"22":-0.6964926680434829,"23":-0.012532566730660376,"24":0.030511492874502492,"25":0.05258367808678251,"26":-0.016398185091720353,"27":0.029644628410094027,"28":-0.0019023481308918786,"29":0.009377194700351506,"30":0.04891959019748306,"31":-0.07836332289300865,"32":-0.006090088584355721,"33":-0.1517625246017484,"34":0.03019156376137549,"35":-0.036044193876551715,"36":-0.05562955901078062,"37":0.00591788568654865,"38":-0.20072522874930812,"39":-0.2579045469495209,"40":0.01794174516107919,"41":-0.059804414816063786,"42":0.001416456856151228,"43":-0.3628146331407995,"44":0.041338593210208024,"45":0.016232366722431772,"46":-0.004688487179406429,"47":0.017839937972955563,"48":-0.2338351635309867,"49":0.09808985208625937,"50":-0.011804448987640393,"51":0.00340158568398515,"52":-0.07792362892221204,"53":-0.06404827302515372,"54":0.005085330055997306,"55":-0.035467922808347034,"56":0.21283603571995927,"57":0.008782342987084425,"58":-0.04502582617216533,"59":0.011581923505281514,"60":-0.13941771194018865,"61":-0.05087150232908949,"62":-0.307452831592126,"63":-0.04096051194724194,"64":-0.015945885186795208,"65":0.026064597990818443,"66":-0.23802136846063762,"67":-0.524660407900809,"68":-0.08428139220107735,"69":0.007033253154272332,"70":0.01442318645095806,"71":-0.046881652107536996,"72":0.06548390967704615,"73":0.002226448353929231,"74":-0.271565610389888,"75":-0.005528879707537392,"76":0.049248375313491605,"77":-0.1277451051688411,"78":-0.5509706424935691,"79":0.020433988449909086}},{"sx":1,"sy":1,"depth":80,"w":{"0":-0.12425150409839116,"1":0.0692900280642444,"2":0.014534164352755771,"3":-0.012717654808866614,"4":-0.01348494585789704,"5":-0.06444739395891613,"6":0.009354326817182755,"7":0.10393388243491816,"8":0.004020928120076005,"9":-0.20422993731455444,"10":-0.06303684117928485,"11":-0.26299829720646206,"12":-0.02615200744558718,"13":0.0016204009291965126,"14":-0.03652708576862907,"15":0.011151035724393752,"16":-0.1522123493258083,"17":0.007375244729372493,"18":-0.3523591352051262,"19":-0.06699098531191248,"20":-0.015616321914661958,"21":-0.13623972926114714,"22":0.02391794129467006,"23":-0.0024583228866990802,"24":-0.0077508748711297105,"25":-0.005732315497874633,"26":-0.14650147912630343,"27":0.048802529311030046,"28":0.005079191584824749,"29":-0.1953121541514843,"30":-0.06263382354424929,"31":-0.012024467858448934,"32":0.040274767656466565,"33":-0.08018796357070537,"34":0.0035096672263953037,"35":-0.013134425691554218,"36":0.043377175302990754,"37":-0.05669289939171174,"38":-0.033871195462807674,"39":0.007744937589902679,"40":0.018473461889816134,"41":0.018586139427598687,"42":0.11071886084175717,"43":0.0630280698463152,"44":-0.005071245315941363,"45":-0.10535973171306495,"46":0.0012324661969672426,"47":-0.18607615638180447,"48":0.10102824640140134,"49":-0.1761575141874679,"50":0.07348628194304005,"51":0.013022491231330556,"52":0.02265285844454672,"53":0.0213215383833996,"54":0.011243504743961427,"55":0.010976775204816342,"56":-0.056999661915142844,"57":-0.3705881904675386,"58":0.014182903672011263,"59":-0.6301031254940398,"60":0.05191792884508431,"61":0.010013881900749979,"62":0.018839154480112124,"63":-0.2652374760919149,"64":-0.010359738451438748,"65":0.026066133372361484,"66":-0.008013163922412192,"67":-0.10091815284353393,"68":0.10596376199644203,"69":-0.00426649875053931,"70":0.023259793647345477,"71":0.020783657238948268,"72":-0.15236090708568986,"73":0.024993665207502232,"74":0.037968267747204784,"75":0.017591515459813724,"76":-0.27082958490138676,"77":-0.33170085884195505,"78":-0.029410532740934373,"79":0.029350871097473388}},{"sx":1,"sy":1,"depth":80,"w":{"0":0.0560758954691541,"1":-0.1593274029180765,"2":-0.012869495482498014,"3":-0.01533162972730297,"4":-0.0283023679172572,"5":-0.13576114073307766,"6":0.06455887734234801,"7":0.021097090634727023,"8":-0.1002387664596913,"9":-0.015258812074289823,"10":-0.08005946486062863,"11":-0.11588319962917852,"12":-0.3302551585646132,"13":-0.009465592624452677,"14":0.016676305566981367,"15":0.001580490454761865,"16":-0.041296025971891644,"17":-0.0062576019741894294,"18":-0.05550256370891211,"19":-0.14444920517239024,"20":0.12409127552317682,"21":0.020081061667342043,"22":-0.7495089921126397,"23":-0.0053835555031424,"24":-0.03462762652957846,"25":-0.033602278783148774,"26":0.023791091517947213,"27":-0.020402166597336947,"28":-0.2727968510740302,"29":0.020412892554326934,"30":-0.23620492542050273,"31":0.0553755138254293,"32":-0.4133724184896518,"33":-0.030553155072910166,"34":-0.2955938515618325,"35":0.01661391167910559,"36":-0.3856958133593443,"37":-0.1844612309508747,"38":-0.06837561740412994,"39":-0.0002879194281072416,"40":0.014411234966817656,"41":-0.030401358276462984,"42":-0.5739859059196948,"43":0.1035016424775063,"44":-0.28952928458938204,"45":-0.3680675151906509,"46":-0.08079215826511045,"47":-0.3687567103001871,"48":-1.1066885370367048,"49":-0.12360834699138433,"50":-0.023121026809162427,"51":0.045209803741638015,"52":-0.16270837767916269,"53":0.013632316671219639,"54":-0.1421821821888093,"55":-0.1467969206864438,"56":-0.19762227855887243,"57":-0.02819470905607843,"58":-0.010957497429831162,"59":0.010966649352399124,"60":0.04821685161537616,"61":-0.19833888452353285,"62":-1.2162867058383282,"63":0.003926591126127481,"64":0.0288641633922144,"65":-0.01578422328900287,"66":0.03232566467983756,"67":-0.37159144900676144,"68":-0.03354073646490694,"69":-0.05343445281944978,"70":0.008621019213189317,"71":-0.08816715004582736,"72":0.03910306119620634,"73":0.033045901295904026,"74":0.017664242514203468,"75":0.004472205296744493,"76":-0.1280204092318336,"77":-0.027958103966923987,"78":0.2039958814179654,"79":0.03361112829810916}},{"sx":1,"sy":1,"depth":80,"w":{"0":-0.2865898063899987,"1":-0.04519863394995755,"2":-0.3057993329868427,"3":-0.10367409341771965,"4":0.011927703787894208,"5":-0.025910965045968935,"6":0.026610622318449902,"7":-0.14179903309219433,"8":-0.2166025831304268,"9":-0.1455768154185998,"10":-0.1287072017075558,"11":0.10214384188257139,"12":-0.009458019941518367,"13":0.02576854638568328,"14":-0.00017083201909123168,"15":0.05095827721682966,"16":-0.017579989464066886,"17":-0.015539882845142646,"18":-0.004995474734245136,"19":0.02851784535091438,"20":-0.28323309536545543,"21":-0.17855162486591056,"22":-0.07856147835942998,"23":0.009282670393078063,"24":-0.001109791813275028,"25":0.02063522906833061,"26":-0.06065241637318246,"27":0.006982709381685079,"28":-0.06495019249488138,"29":-0.06373514262833777,"30":-0.05891830898710609,"31":0.059679309275299734,"32":-0.05314224140916099,"33":0.02987935019703903,"34":0.019459433366551107,"35":-0.15285899317006815,"36":0.0054830790849672885,"37":0.11894558107061438,"38":-0.1742323401062362,"39":-0.008844133872950256,"40":-0.0055244040061535,"41":0.0064906479839028555,"42":0.0025608583071542097,"43":0.04706765536903257,"44":0.014553248346920717,"45":-0.007218164996197319,"46":-0.006953272474482581,"47":-0.03326254865598658,"48":-0.09287982989636048,"49":-0.3731254884073471,"50":0.006010117940466873,"51":0.00610535978647337,"52":0.024429387036077853,"53":-0.014195201166357856,"54":0.002197622147573009,"55":0.05006527649464095,"56":0.09095065508775904,"57":0.030919543447333643,"58":-0.015875458760305414,"59":-0.03561735529932684,"60":0.022697712523793524,"61":0.007845846863482948,"62":0.052236352247515584,"63":-0.001686644048251908,"64":-0.21911490949213439,"65":0.02891264572169527,"66":0.024027931255513144,"67":0.07789872428168963,"68":-0.4022055414568695,"69":0.01592541927485238,"70":-0.24752952341341644,"71":0.029346954203386955,"72":0.055867288090968754,"73":-0.018579818330001552,"74":-0.03973545976967628,"75":0.043950649017205946,"76":-1.2154954884619134,"77":-0.01909990428445357,"78":-0.04053624596479162,"79":-0.06481791646451375}},{"sx":1,"sy":1,"depth":80,"w":{"0":0.10626376021668159,"1":-0.13949783153453796,"2":-0.04447518540110232,"3":-0.01383103329358482,"4":0.03344977110149962,"5":-0.3089045659603061,"6":-0.01660431675897461,"7":-0.012985678092580786,"8":-0.3958675073861372,"9":0.053070573142679676,"10":0.016172841399346966,"11":-0.0025683901772897135,"12":-0.09480708074436303,"13":0.013042314533351402,"14":-0.04501810008399114,"15":0.033788674649446085,"16":-0.20008079732952513,"17":-0.00813921794960381,"18":0.011751371832772854,"19":0.033666736180600336,"20":0.05914953204456473,"21":-0.005949927418065665,"22":-0.559531462343386,"23":-0.0015460556415597328,"24":-0.14975395590792578,"25":0.053837744855847317,"26":-0.053233669473592905,"27":0.010780752373717398,"28":-0.19465249486656303,"29":0.11287138471201248,"30":0.08067407004067115,"31":-0.009061120382686794,"32":-0.6799864051805199,"33":-0.048232524833388156,"34":-0.062675175301723,"35":-0.01844950861558495,"36":0.10233695247679436,"37":0.07906105715050189,"38":0.09955411501420332,"39":-0.0005176156296164191,"40":-0.011006611391733057,"41":0.02417956690839665,"42":-0.05145159814994398,"43":-0.5065587202556057,"44":-0.06654713778414384,"45":-0.296794573361724,"46":0.004358208682286102,"47":0.00383824296993326,"48":-0.264826129890958,"49":-0.1255817953836032,"50":0.010067845427503096,"51":-0.1691981130648317,"52":0.12687065110551626,"53":-0.26494284386606287,"54":-0.39236706954042744,"55":0.0069611081997891,"56":-0.3739443290819366,"57":-0.09410690839265021,"58":0.011192711102295408,"59":-0.29298557880682274,"60":0.06578963467706365,"61":0.03885986648394145,"62":0.002910478452362085,"63":0.09801707788841679,"64":0.016779871112998376,"65":-0.27828800897289313,"66":0.004750176798750193,"67":-0.39175058693669385,"68":0.1644715517120847,"69":-0.03976051973467219,"70":0.012594570774646095,"71":-0.0004110773593544588,"72":0.028610428690788926,"73":-0.004626508959271271,"74":-0.0020219119646996135,"75":-0.1707260091555984,"76":-0.05806718315822429,"77":-0.0038212922823175222,"78":-0.5658221936033242,"79":-0.17219499573654842}},{"sx":1,"sy":1,"depth":80,"w":{"0":0.03343777414930181,"1":0.0016806111972842773,"2":0.024764111293763,"3":-0.04561919994749314,"4":0.036571626969460896,"5":-0.1132892875023883,"6":-0.23416425775028196,"7":-0.2342461333010978,"8":-0.18125020297853067,"9":0.007287368271775493,"10":0.02004192126645211,"11":-0.015793954393702823,"12":-0.39061425656441606,"13":-0.023002121700747228,"14":0.01274675556926554,"15":0.015835505190813202,"16":-0.018218378318570427,"17":0.007782362926241352,"18":0.009065602196656256,"19":-0.05891531309145792,"20":0.03415492911317921,"21":-0.09135626209771527,"22":-0.08274642918254166,"23":-0.11273540908932264,"24":-0.047144711489808026,"25":-0.1974998535401966,"26":-0.07027763335054335,"27":-0.08771662990626596,"28":0.0676518971980045,"29":-0.29059120464941385,"30":-0.07462696688685193,"31":-0.07960822017537668,"32":0.05235015733561197,"33":-0.1842275658060821,"34":0.008418233453259667,"35":0.006801537052874682,"36":-0.062392947282253246,"37":0.06641593817226693,"38":0.04633289410602817,"39":-0.0235442497061337,"40":-0.2125865630965498,"41":-0.0041252778219711735,"42":0.07120941657861707,"43":0.031622358889435,"44":-0.038023988629390645,"45":0.0028447325968456233,"46":-0.01946568200123979,"47":-0.39319643570461654,"48":0.04484175610916455,"49":0.10287353400254799,"50":-0.2920854485027561,"51":-0.00740558636451392,"52":0.018861429108158433,"53":0.02288680910636368,"54":-0.014574916711977802,"55":0.014707005892445835,"56":-0.02419075562641073,"57":-0.13243014691139798,"58":-0.0011581433386633944,"59":0.07565636635972485,"60":-0.017508199038390425,"61":0.034695811618205744,"62":0.05512257548269006,"63":-0.03764464663962642,"64":0.00030489215859003457,"65":-0.4084717712053666,"66":-0.01235787366779059,"67":0.06024772187623275,"68":-0.050095772958878286,"69":0.006390665760984441,"70":-0.10795017580849833,"71":-0.06823750948657956,"72":-0.37178667318015646,"73":-0.02474605353100968,"74":-0.039562837240372226,"75":-0.1147138514696847,"76":-0.4458503503246914,"77":-0.013269238867159782,"78":-0.32083547119899214,"79":0.02242555339795441}},{"sx":1,"sy":1,"depth":80,"w":{"0":0.0161928750228092,"1":-0.0825768925095178,"2":0.029775658136591936,"3":-0.17112916119511673,"4":0.008469216220142415,"5":0.048432387596244075,"6":-0.01953968997427215,"7":-0.07424807141470069,"8":0.02693495352629905,"9":0.028254845778655908,"10":-0.012872290809252377,"11":-0.048031902270836084,"12":0.019164508152748484,"13":-0.09445379040297347,"14":-0.01752927609088941,"15":0.005776726346715298,"16":-0.12437382647294361,"17":-0.07689842447311424,"18":-0.03451799710178281,"19":-0.2238492398004649,"20":0.10180741948180975,"21":0.05241507165886518,"22":-0.6131136080488321,"23":-0.1982345127963576,"24":0.05187704841804157,"25":-0.29099158377465106,"26":0.04512584121424631,"27":0.024956221960913134,"28":0.03380828713621911,"29":0.036307967231690434,"30":0.045055390444173275,"31":-0.012980108245077742,"32":0.011777440460187544,"33":-0.4344079900211248,"34":0.027202124150591863,"35":0.01214211182805569,"36":-0.01664207961945533,"37":0.021218469478766253,"38":0.027624516111572635,"39":0.009796859385801162,"40":-0.33659415440317775,"41":-0.04862440511473785,"42":-0.009709491423115623,"43":0.02888391823056822,"44":-0.1200585625621096,"45":0.0021034387820082524,"46":-0.08401424455412648,"47":-0.012094278324715263,"48":-0.7624073378244173,"49":0.03354010619868637,"50":-0.427821102668375,"51":-0.023121504846048805,"52":-0.2712444320232984,"53":0.05967498381147192,"54":-0.07130142716139118,"55":-0.017213972629163462,"56":0.015212124490037659,"57":-0.2928448183828042,"58":-0.10219743203561668,"59":0.05298076608129378,"60":-0.33835669651206474,"61":-0.08187570373266809,"62":-1.7630955364126912,"63":-0.054797841038660894,"64":0.0036047823816744433,"65":-0.04766886482410878,"66":0.05111228023987712,"67":-0.11924323491764084,"68":-0.3828134978403994,"69":-0.16816646589328926,"70":-0.10216049650216975,"71":0.00753111251157182,"72":0.01557313347619465,"73":-0.2059126342422856,"74":0.01593264859312095,"75":-0.04636523658320244,"76":-0.6795140966080976,"77":-0.06956808523187073,"78":-0.6891458982344363,"79":-0.20277712012248955}}],"biases":{"sx":1,"sy":1,"depth":8,"w":{"0":-1.655987050273267,"1":-1.5509461479117759,"2":-1.5111693390069487,"3":-1.6526761677873816,"4":-1.4126622931641621,"5":-1.457942292576233,"6":-1.410818499553944,"7":-1.3238007111118844}}},{"out_depth":8,"out_sx":1,"out_sy":1,"layer_type":"regression","num_inputs":8}]}